{
  "version": "1.0",
  "truncation": null,
  "padding": null,
  "added_tokens": [
    {
      "id": 0,
      "content": "<PAD>",
      "single_word": false,
      "lstrip": false,
      "rstrip": false,
      "normalized": false,
      "special": true
    },
    {
      "id": 1,
      "content": "<UNK>",
      "single_word": false,
      "lstrip": false,
      "rstrip": false,
      "normalized": false,
      "special": true
    },
    {
      "id": 2,
      "content": "<EOS>",
      "single_word": false,
      "lstrip": false,
      "rstrip": false,
      "normalized": false,
      "special": true
    }
  ],
  "normalizer": null,
  "pre_tokenizer": {
    "type": "Whitespace"
  },
  "post_processor": null,
  "decoder": null,
  "model": {
    "type": "BPE",
    "dropout": null,
    "unk_token": "<UNK>",
    "continuing_subword_prefix": null,
    "end_of_word_suffix": null,
    "fuse_unk": false,
    "byte_fallback": false,
    "ignore_merges": false,
    "vocab": {
      "<PAD>": 0,
      "<UNK>": 1,
      "<EOS>": 2,
      "!": 3,
      "\"": 4,
      "#": 5,
      "$": 6,
      "%": 7,
      "'": 8,
      "(": 9,
      ")": 10,
      "*": 11,
      "+": 12,
      ",": 13,
      "-": 14,
      ".": 15,
      "/": 16,
      "0": 17,
      "1": 18,
      "2": 19,
      "3": 20,
      "4": 21,
      "5": 22,
      "6": 23,
      "7": 24,
      "8": 25,
      "9": 26,
      ":": 27,
      ";": 28,
      "=": 29,
      "?": 30,
      "@": 31,
      "A": 32,
      "B": 33,
      "C": 34,
      "D": 35,
      "E": 36,
      "F": 37,
      "G": 38,
      "H": 39,
      "I": 40,
      "J": 41,
      "K": 42,
      "L": 43,
      "M": 44,
      "N": 45,
      "O": 46,
      "P": 47,
      "Q": 48,
      "R": 49,
      "S": 50,
      "T": 51,
      "U": 52,
      "V": 53,
      "W": 54,
      "X": 55,
      "Y": 56,
      "Z": 57,
      "[": 58,
      "\\": 59,
      "]": 60,
      "^": 61,
      "_": 62,
      "`": 63,
      "a": 64,
      "b": 65,
      "c": 66,
      "d": 67,
      "e": 68,
      "f": 69,
      "g": 70,
      "h": 71,
      "i": 72,
      "j": 73,
      "k": 74,
      "l": 75,
      "m": 76,
      "n": 77,
      "o": 78,
      "p": 79,
      "q": 80,
      "r": 81,
      "s": 82,
      "t": 83,
      "u": 84,
      "v": 85,
      "w": 86,
      "x": 87,
      "y": 88,
      "z": 89,
      "{": 90,
      "}": 91,
      "~": 92,
      "": 93,
      "": 94,
      "": 95,
      "": 96,
      "": 97,
      "": 98,
      "": 99,
      "": 100,
      "": 101,
      "": 102,
      "": 103,
      "": 104,
      "": 105,
      "": 106,
      "": 107,
      "": 108,
      "": 109,
      "¡": 110,
      "¢": 111,
      "£": 112,
      "¤": 113,
      "¥": 114,
      "¦": 115,
      "§": 116,
      "¨": 117,
      "©": 118,
      "ª": 119,
      "¬": 120,
      "­": 121,
      "®": 122,
      "¯": 123,
      "°": 124,
      "±": 125,
      "²": 126,
      "³": 127,
      "´": 128,
      "µ": 129,
      "¶": 130,
      "·": 131,
      "¸": 132,
      "¹": 133,
      "º": 134,
      "¼": 135,
      "½": 136,
      "¾": 137,
      "¿": 138,
      "À": 139,
      "Á": 140,
      "Â": 141,
      "Ã": 142,
      "Ä": 143,
      "Å": 144,
      "Æ": 145,
      "Ç": 146,
      "È": 147,
      "É": 148,
      "Ê": 149,
      "Ë": 150,
      "Ì": 151,
      "Í": 152,
      "Î": 153,
      "Ï": 154,
      "Ð": 155,
      "Ñ": 156,
      "Ò": 157,
      "Ó": 158,
      "Ô": 159,
      "Õ": 160,
      "Ö": 161,
      "×": 162,
      "Ø": 163,
      "Ù": 164,
      "Ú": 165,
      "Û": 166,
      "Ü": 167,
      "Ý": 168,
      "Þ": 169,
      "ß": 170,
      "à": 171,
      "á": 172,
      "â": 173,
      "ã": 174,
      "ä": 175,
      "å": 176,
      "æ": 177,
      "ç": 178,
      "è": 179,
      "é": 180,
      "ê": 181,
      "ë": 182,
      "ì": 183,
      "í": 184,
      "î": 185,
      "ï": 186,
      "ð": 187,
      "ñ": 188,
      "ò": 189,
      "ó": 190,
      "ô": 191,
      "õ": 192,
      "ö": 193,
      "÷": 194,
      "ø": 195,
      "ù": 196,
      "ú": 197,
      "û": 198,
      "ü": 199,
      "ý": 200,
      "þ": 201,
      "ÿ": 202,
      "ā": 203,
      "Ă": 204,
      "Ą": 205,
      "ą": 206,
      "ć": 207,
      "č": 208,
      "ē": 209,
      "ė": 210,
      "ę": 211,
      "ğ": 212,
      "ī": 213,
      "İ": 214,
      "ı": 215,
      "Ĺ": 216,
      "Ļ": 217,
      "Ł": 218,
      "ł": 219,
      "Ń": 220,
      "ń": 221,
      "ō": 222,
      "ő": 223,
      "Œ": 224,
      "œ": 225,
      "Ŕ": 226,
      "ŕ": 227,
      "ř": 228,
      "Ś": 229,
      "ś": 230,
      "Ş": 231,
      "ş": 232,
      "Š": 233,
      "š": 234,
      "ţ": 235,
      "Ť": 236,
      "ū": 237,
      "Ű": 238,
      "ű": 239,
      "ź": 240,
      "ż": 241,
      "Ž": 242,
      "ž": 243,
      "ƒ": 244,
      "ʱ": 245,
      "ˇ": 246,
      "˘": 247,
      "˜": 248,
      "˯": 249,
      "̇": 250,
      "Α": 251,
      "Β": 252,
      "Γ": 253,
      "Ε": 254,
      "Η": 255,
      "Θ": 256,
      "Ι": 257,
      "Κ": 258,
      "Μ": 259,
      "Ν": 260,
      "Ο": 261,
      "Σ": 262,
      "Τ": 263,
      "Υ": 264,
      "α": 265,
      "β": 266,
      "δ": 267,
      "ι": 268,
      "κ": 269,
      "ν": 270,
      "ο": 271,
      "ρ": 272,
      "τ": 273,
      "υ": 274,
      "Ϻ": 275,
      "Ͻ": 276,
      "Ѓ": 277,
      "Ј": 278,
      "Ў": 279,
      "А": 280,
      "В": 281,
      "Г": 282,
      "Д": 283,
      "Е": 284,
      "И": 285,
      "Й": 286,
      "К": 287,
      "М": 288,
      "Н": 289,
      "О": 290,
      "С": 291,
      "Т": 292,
      "У": 293,
      "Ь": 294,
      "а": 295,
      "б": 296,
      "в": 297,
      "г": 298,
      "д": 299,
      "е": 300,
      "ж": 301,
      "з": 302,
      "и": 303,
      "й": 304,
      "к": 305,
      "л": 306,
      "м": 307,
      "н": 308,
      "о": 309,
      "п": 310,
      "р": 311,
      "с": 312,
      "т": 313,
      "у": 314,
      "х": 315,
      "ч": 316,
      "ш": 317,
      "щ": 318,
      "ъ": 319,
      "ы": 320,
      "э": 321,
      "я": 322,
      "ѕ": 323,
      "і": 324,
      "љ": 325,
      "ћ": 326,
      "ѧ": 327,
      "ҵ": 328,
      "ה": 329,
      "ף": 330,
      "ة": 331,
      "ح": 332,
      "ر": 333,
      "ع": 334,
      "ل": 335,
      "ي": 336,
      "ٌ": 337,
      "َ": 338,
      "ِ": 339,
      "ං": 340,
      "අ": 341,
      "ආ": 342,
      "ඇ": 343,
      "ඉ": 344,
      "උ": 345,
      "එ": 346,
      "ඒ": 347,
      "ඔ": 348,
      "ඕ": 349,
      "ක": 350,
      "ග": 351,
      "ඝ": 352,
      "ඟ": 353,
      "ච": 354,
      "ජ": 355,
      "ට": 356,
      "ඩ": 357,
      "ණ": 358,
      "ඬ": 359,
      "ත": 360,
      "ථ": 361,
      "ද": 362,
      "ධ": 363,
      "න": 364,
      "ඳ": 365,
      "ප": 366,
      "බ": 367,
      "භ": 368,
      "ම": 369,
      "ය": 370,
      "ර": 371,
      "ල": 372,
      "ව": 373,
      "ශ": 374,
      "ෂ": 375,
      "ස": 376,
      "හ": 377,
      "ළ": 378,
      "ෆ": 379,
      "්": 380,
      "ා": 381,
      "ැ": 382,
      "ෑ": 383,
      "ි": 384,
      "ී": 385,
      "ු": 386,
      "ූ": 387,
      "ෘ": 388,
      "ෙ": 389,
      "ේ": 390,
      "ො": 391,
      "ෝ": 392,
      "ෞ": 393,
      "จ": 394,
      "ต": 395,
      "ร": 396,
      "ว": 397,
      "ำ": 398,
      "แ": 399,
      "ღ": 400,
      "ᴬ": 401,
      "ᴱ": 402,
      "ᴳ": 403,
      "ᴴ": 404,
      "ᴶ": 405,
      "ᴹ": 406,
      "ᴺ": 407,
      "ᴾ": 408,
      "ᴿ": 409,
      "ᵀ": 410,
      "ᵁ": 411,
      "ả": 412,
      "ộ": 413,
      "ờ": 414,
      "​": 415,
      "‎": 416,
      "‏": 417,
      "‒": 418,
      "–": 419,
      "—": 420,
      "―": 421,
      "‚": 422,
      "•": 423,
      "‬": 424,
      "‭": 425,
      "‰": 426,
      "″": 427,
      "⁈": 428,
      "₂": 429,
      "ₒ": 430,
      "₣": 431,
      "₩": 432,
      "€": 433,
      "₹": 434,
      "℃": 435,
      "™": 436,
      "⇒": 437,
      "∏": 438,
      "−": 439,
      "√": 440,
      "≡": 441,
      "≥": 442,
      "⌠": 443,
      "│": 444,
      "◆": 445,
      "○": 446,
      "●": 447,
      "◦": 448,
      "★": 449,
      "☆": 450,
      "☮": 451,
      "☯": 452,
      "☻": 453,
      "♥": 454,
      "♪": 455,
      "♫": 456,
      "♬": 457,
      "✩": 458,
      "⬄": 459,
      "《": 460,
      "》": 461,
      "あ": 462,
      "う": 463,
      "え": 464,
      "か": 465,
      "き": 466,
      "け": 467,
      "し": 468,
      "じ": 469,
      "つ": 470,
      "で": 471,
      "ど": 472,
      "な": 473,
      "に": 474,
      "ね": 475,
      "の": 476,
      "は": 477,
      "び": 478,
      "ぽ": 479,
      "ま": 480,
      "も": 481,
      "ゅ": 482,
      "ら": 483,
      "り": 484,
      "る": 485,
      "ん": 486,
      "イ": 487,
      "カ": 488,
      "ス": 489,
      "ズ": 490,
      "ド": 491,
      "ヒ": 492,
      "ペ": 493,
      "ラ": 494,
      "ロ": 495,
      "・": 496,
      "ー": 497,
      "一": 498,
      "下": 499,
      "不": 500,
      "个": 501,
      "丸": 502,
      "为": 503,
      "乐": 504,
      "也": 505,
      "亦": 506,
      "亮": 507,
      "他": 508,
      "伊": 509,
      "会": 510,
      "伤": 511,
      "你": 512,
      "信": 513,
      "俺": 514,
      "倍": 515,
      "先": 516,
      "兒": 517,
      "八": 518,
      "共": 519,
      "决": 520,
      "出": 521,
      "分": 522,
      "到": 523,
      "剣": 524,
      "力": 525,
      "动": 526,
      "劳": 527,
      "化": 528,
      "友": 529,
      "叔": 530,
      "叶": 531,
      "号": 532,
      "同": 533,
      "名": 534,
      "后": 535,
      "吗": 536,
      "吧": 537,
      "听": 538,
      "吾": 539,
      "呀": 540,
      "啊": 541,
      "啦": 542,
      "嗎": 543,
      "嗯": 544,
      "在": 545,
      "夏": 546,
      "多": 547,
      "大": 548,
      "天": 549,
      "太": 550,
      "好": 551,
      "媽": 552,
      "宇": 553,
      "安": 554,
      "宋": 555,
      "宙": 556,
      "定": 557,
      "尼": 558,
      "崖": 559,
      "工": 560,
      "帶": 561,
      "帽": 562,
      "干": 563,
      "平": 564,
      "廣": 565,
      "开": 566,
      "形": 567,
      "影": 568,
      "很": 569,
      "得": 570,
      "心": 571,
      "快": 572,
      "怕": 573,
      "悬": 574,
      "情": 575,
      "惜": 576,
      "愉": 577,
      "意": 578,
      "感": 579,
      "愿": 580,
      "懂": 581,
      "我": 582,
      "手": 583,
      "才": 584,
      "打": 585,
      "承": 586,
      "抯": 587,
      "挑": 588,
      "操": 589,
      "数": 590,
      "斯": 591,
      "方": 592,
      "旋": 593,
      "日": 594,
      "明": 595,
      "是": 596,
      "晶": 597,
      "最": 598,
      "有": 599,
      "木": 600,
      "来": 601,
      "极": 602,
      "林": 603,
      "染": 604,
      "桑": 605,
      "模": 606,
      "樹": 607,
      "正": 608,
      "步": 609,
      "汙": 610,
      "池": 611,
      "没": 612,
      "無": 613,
      "焼": 614,
      "煤": 615,
      "爱": 616,
      "特": 617,
      "犡": 618,
      "玉": 619,
      "生": 620,
      "留": 621,
      "痛": 622,
      "白": 623,
      "的": 624,
      "看": 625,
      "着": 626,
      "睡": 627,
      "祝": 628,
      "神": 629,
      "秘": 630,
      "穃": 631,
      "窗": 632,
      "等": 633,
      "米": 634,
      "粗": 635,
      "終": 636,
      "絜": 637,
      "繆": 638,
      "美": 639,
      "耶": 640,
      "能": 641,
      "脈": 642,
      "芽": 643,
      "英": 644,
      "茅": 645,
      "莊": 646,
      "萬": 647,
      "落": 648,
      "著": 649,
      "蒙": 650,
      "虾": 651,
      "螺": 652,
      "蟲": 653,
      "術": 654,
      "被": 655,
      "裏": 656,
      "裡": 657,
      "要": 658,
      "觉": 659,
      "記": 660,
      "訳": 661,
      "词": 662,
      "话": 663,
      "说": 664,
      "走": 665,
      "跟": 666,
      "路": 667,
      "身": 668,
      "还": 669,
      "这": 670,
      "連": 671,
      "遁": 672,
      "那": 673,
      "部": 674,
      "都": 675,
      "醤": 676,
      "重": 677,
      "长": 678,
      "閑": 679,
      "閟": 680,
      "陈": 681,
      "雄": 682,
      "雅": 683,
      "雲": 684,
      "靈": 685,
      "面": 686,
      "韆": 687,
      "風": 688,
      "饕": 689,
      "馥": 690,
      "馻": 691,
      "駉": 692,
      "駛": 693,
      "鬼": 694,
      "鰐": 695,
      "黷": 696,
      "龍": 697,
      "기": 698,
      "꿈": 699,
      "보": 700,
      "예": 701,
      "의": 702,
      "인": 703,
      "일": 704,
      "형": 705,
      "": 706,
      "": 707,
      "": 708,
      "": 709,
      "": 710,
      "靖": 711,
      "ﬁ": 712,
      "ﬂ": 713,
      "﻿": 714,
      "！": 715,
      "＃": 716,
      "（": 717,
      "）": 718,
      "？": 719,
      "Ａ": 720,
      "Ｅ": 721,
      "Ｉ": 722,
      "Ｎ": 723,
      "Ｏ": 724,
      "Ｔ": 725,
      "Ｖ": 726,
      "Ｘ": 727,
      "ａ": 728,
      "ｅ": 729,
      "ｆ": 730,
      "ｈ": 731,
      "ｉ": 732,
      "ｌ": 733,
      "ｏ": 734,
      "ｒ": 735,
      "ｓ": 736,
      "ｔ": 737,
      "ｙ": 738,
      "ｶ": 739,
      "ﾉ": 740,
      "�": 741,
      "an": 742,
      "er": 743,
      "in": 744,
      "en": 745,
      "ak": 746,
      "at": 747,
      "th": 748,
      "ar": 749,
      "ou": 750,
      "al": 751,
      "ang": 752,
      "ah": 753,
      "it": 754,
      "on": 755,
      "me": 756,
      "se": 757,
      "is": 758,
      "..": 759,
      "di": 760,
      "ing": 761,
      "as": 762,
      "you": 763,
      "or": 764,
      "am": 765,
      "ya": 766,
      "un": 767,
      "ti": 768,
      "ap": 769,
      "the": 770,
      "ku": 771,
      "men": 772,
      "au": 773,
      "to": 774,
      "kan": 775,
      "el": 776,
      "re": 777,
      "ad": 778,
      "ke": 779,
      "le": 780,
      "tu": 781,
      "us": 782,
      "il": 783,
      "aku": 784,
      "ere": 785,
      "ber": 786,
      "mu": 787,
      "es": 788,
      "ow": 789,
      "hat": 790,
      "...": 791,
      "ai": 792,
      "ay": 793,
      "he": 794,
      "per": 795,
      "ve": 796,
      "be": 797,
      "yang": 798,
      "akan": 799,
      "bu": 800,
      "dak": 801,
      "ri": 802,
      "Aku": 803,
      "ag": 804,
      "and": 805,
      "ter": 806,
      "ot": 807,
      "li": 808,
      "nya": 809,
      "ini": 810,
      "mem": 811,
      "of": 812,
      "ed": 813,
      "ka": 814,
      "gh": 815,
      "et": 816,
      "kau": 817,
      "itu": 818,
      "eng": 819,
      "su": 820,
      "ir": 821,
      "apa": 822,
      "ac": 823,
      "tidak": 824,
      "You": 825,
      "nd": 826,
      "man": 827,
      "ari": 828,
      "that": 829,
      "sa": 830,
      "ita": 831,
      "st": 832,
      "ja": 833,
      "oo": 834,
      "do": 835,
      "ome": 836,
      "all": 837,
      "for": 838,
      "And": 839,
      "ch": 840,
      "ung": 841,
      "ro": 842,
      "si": 843,
      "meng": 844,
      "dan": 845,
      "ght": 846,
      "em": 847,
      "now": 848,
      "ada": 849,
      "im": 850,
      "tuk": 851,
      "ver": 852,
      "ld": 853,
      "ha": 854,
      "ll": 855,
      "ut": 856,
      "ur": 857,
      "tak": 858,
      "tah": 859,
      "ab": 860,
      "here": 861,
      "out": 862,
      "Kau": 863,
      "we": 864,
      "ia": 865,
      "untuk": 866,
      "Ap": 867,
      "ic": 868,
      "anya": 869,
      "deng": 870,
      "ali": 871,
      "de": 872,
      "dia": 873,
      "one": 874,
      "He": 875,
      "up": 876,
      "ell": 877,
      "my": 878,
      "your": 879,
      "ne": 880,
      "bis": 881,
      "kita": 882,
      "um": 883,
      "go": 884,
      "ant": 885,
      "uh": 886,
      "are": 887,
      "alah": 888,
      "this": 889,
      "ik": 890,
      "ust": 891,
      "ent": 892,
      "was": 893,
      "ih": 894,
      "bisa": 895,
      "har": 896,
      "orang": 897,
      "can": 898,
      "know": 899,
      "ho": 900,
      "have": 901,
      "aik": 902,
      "dengan": 903,
      "ain": 904,
      "What": 905,
      "wi": 906,
      "ol": 907,
      "Se": 908,
      "ereka": 909,
      "tahu": 910,
      "Apa": 911,
      "It": 912,
      "not": 913,
      "The": 914,
      "thing": 915,
      "kam": 916,
      "gi": 917,
      "ce": 918,
      "ara": 919,
      "Anda": 920,
      "id": 921,
      "ould": 922,
      "aw": 923,
      "ong": 924,
      "dari": 925,
      "om": 926,
      "ill": 927,
      "with": 928,
      "Oh": 929,
      "ni": 930,
      "api": 931,
      "te": 932,
      "any": 933,
      "sh": 934,
      "pe": 935,
      "angan": 936,
      "ama": 937,
      "don": 938,
      "Ti": 939,
      "alam": 940,
      "ul": 941,
      "ck": 942,
      "dah": 943,
      "akukan": 944,
      "bo": 945,
      "get": 946,
      "what": 947,
      "kar": 948,
      "pen": 949,
      "ati": 950,
      "gu": 951,
      "mana": 952,
      "atu": 953,
      "No": 954,
      "ry": 955,
      "her": 956,
      "lakukan": 957,
      "lo": 958,
      "ga": 959,
      "Dia": 960,
      "We": 961,
      "Th": 962,
      "Tidak": 963,
      "lah": 964,
      "na": 965,
      "ly": 966,
      "harus": 967,
      "memb": 968,
      "no": 969,
      "so": 970,
      "mereka": 971,
      "jadi": 972,
      "uk": 973,
      "mas": 974,
      "baik": 975,
      "eah": 976,
      "just": 977,
      "agi": 978,
      "enar": 979,
      "pat": 980,
      "ingin": 981,
      "some": 982,
      "fe": 983,
      "like": 984,
      "right": 985,
      "ind": 986,
      "ack": 987,
      "sel": 988,
      "Dan": 989,
      "mo": 990,
      "pun": 991,
      "ju": 992,
      "him": 993,
      "Ya": 994,
      "bel": 995,
      "ther": 996,
      "ood": 997,
      "lihat": 998,
      "ink": 999,
      "want": 1000,
      "bil": 1001,
      "but": 1002,
      "Yeah": 1003,
      "got": 1004,
      "did": 1005,
      "ook": 1006,
      "meny": 1007,
      "int": 1008,
      "adalah": 1009,
      "end": 1010,
      "aya": 1011,
      "our": 1012,
      "amp": 1013,
      "perti": 1014,
      "saya": 1015,
      "wh": 1016,
      "saja": 1017,
      "tr": 1018,
      "lu": 1019,
      "wor": 1020,
      "bah": 1021,
      "benar": 1022,
      "about": 1023,
      "ika": 1024,
      "Ini": 1025,
      "ok": 1026,
      "kali": 1027,
      "sudah": 1028,
      "agai": 1029,
      "there": 1030,
      "That": 1031,
      "ep": 1032,
      "af": 1033,
      "Itu": 1034,
      "alu": 1035,
      "sen": 1036,
      "very": 1037,
      "00": 1038,
      "wa": 1039,
      "adi": 1040,
      "amu": 1041,
      "inya": 1042,
      "tel": 1043,
      "ally": 1044,
      "sed": 1045,
      "semu": 1046,
      "sini": 1047,
      "mak": 1048,
      "art": 1049,
      "seperti": 1050,
      "rom": 1051,
      "if": 1052,
      "think": 1053,
      "pl": 1054,
      "po": 1055,
      "karang": 1056,
      "bar": 1057,
      "ple": 1058,
      "will": 1059,
      "kat": 1060,
      "asa": 1061,
      "pergi": 1062,
      "dalam": 1063,
      "co": 1064,
      "ker": 1065,
      "Ay": 1066,
      "pada": 1067,
      "apat": 1068,
      "ist": 1069,
      "Wh": 1070,
      "way": 1071,
      "diri": 1072,
      "time": 1073,
      "ting": 1074,
      "mer": 1075,
      "ikir": 1076,
      "Kita": 1077,
      "kin": 1078,
      "kel": 1079,
      "kami": 1080,
      "own": 1081,
      "punya": 1082,
      "kem": 1083,
      "say": 1084,
      "they": 1085,
      "da": 1086,
      "cu": 1087,
      "But": 1088,
      "Hey": 1089,
      "kamu": 1090,
      "con": 1091,
      "ank": 1092,
      "agaimana": 1093,
      "dapat": 1094,
      "Tapi": 1095,
      "der": 1096,
      "est": 1097,
      "bih": 1098,
      "see": 1099,
      "mor": 1100,
      "come": 1101,
      "buat": 1102,
      "ana": 1103,
      "hanya": 1104,
      "So": 1105,
      "ena": 1106,
      "dis": 1107,
      "bi": 1108,
      "lagi": 1109,
      "ine": 1110,
      "semua": 1111,
      "back": 1112,
      "ungkin": 1113,
      "du": 1114,
      "onna": 1115,
      "alan": 1116,
      "from": 1117,
      "ex": 1118,
      "who": 1119,
      "bukan": 1120,
      "ase": 1121,
      "gonna": 1122,
      "need": 1123,
      "ven": 1124,
      "ast": 1125,
      "ami": 1126,
      "uar": 1127,
      "gal": 1128,
      "akah": 1129,
      "pad": 1130,
      "ci": 1131,
      "kas": 1132,
      "day": 1133,
      "lebih": 1134,
      "she": 1135,
      "melakukan": 1136,
      "Go": 1137,
      "telah": 1138,
      "angat": 1139,
      "ct": 1140,
      "ate": 1141,
      "member": 1142,
      "ie": 1143,
      "hal": 1144,
      "Well": 1145,
      "going": 1146,
      "ight": 1147,
      "ound": 1148,
      "Ber": 1149,
      "Per": 1150,
      "his": 1151,
      "This": 1152,
      "pikir": 1153,
      "Di": 1154,
      "ba": 1155,
      "Ter": 1156,
      "melihat": 1157,
      "com": 1158,
      "Ok": 1159,
      "ard": 1160,
      "seorang": 1161,
      "would": 1162,
      "tapi": 1163,
      "has": 1164,
      "uck": 1165,
      "pro": 1166,
      "them": 1167,
      "pern": 1168,
      "bali": 1169,
      "dy": 1170,
      "ation": 1171,
      "by": 1172,
      "ss": 1173,
      "Si": 1174,
      "asi": 1175,
      "satu": 1176,
      "sekarang": 1177,
      "Saya": 1178,
      "ima": 1179,
      "anak": 1180,
      "isi": 1181,
      "had": 1182,
      "look": 1183,
      "bat": 1184,
      "good": 1185,
      "qu": 1186,
      "How": 1187,
      "off": 1188,
      "sama": 1189,
      "pernah": 1190,
      "let": 1191,
      "Ke": 1192,
      "were": 1193,
      "beg": 1194,
      "Okay": 1195,
      "dat": 1196,
      "Do": 1197,
      "Yes": 1198,
      "sangat": 1199,
      "pas": 1200,
      "cau": 1201,
      "Be": 1202,
      "unuh": 1203,
      "Come": 1204,
      "Kami": 1205,
      "pre": 1206,
      "been": 1207,
      "ny": 1208,
      "gr": 1209,
      "They": 1210,
      "ess": 1211,
      "Baik": 1212,
      "tem": 1213,
      "ace": 1214,
      "suatu": 1215,
      "tion": 1216,
      "hid": 1217,
      "ge": 1218,
      "bur": 1219,
      "alk": 1220,
      "could": 1221,
      "jika": 1222,
      "She": 1223,
      "ble": 1224,
      "membuat": 1225,
      "mau": 1226,
      "hap": 1227,
      "lit": 1228,
      "juga": 1229,
      "In": 1230,
      "Mereka": 1231,
      "ser": 1232,
      "ye": 1233,
      "down": 1234,
      "take": 1235,
      "Let": 1236,
      "Jadi": 1237,
      "tent": 1238,
      "lalu": 1239,
      "arkan": 1240,
      "wo": 1241,
      "ilik": 1242,
      "ma": 1243,
      "ment": 1244,
      "how": 1245,
      "son": 1246,
      "ger": 1247,
      "more": 1248,
      "mengh": 1249,
      "sp": 1250,
      "mat": 1251,
      "Jangan": 1252,
      ".\"": 1253,
      "pan": 1254,
      "keluar": 1255,
      "tell": 1256,
      "every": 1257,
      "anyak": 1258,
      "ough": 1259,
      "hari": 1260,
      "ikan": 1261,
      "belum": 1262,
      "pu": 1263,
      "kalian": 1264,
      "kasih": 1265,
      "enti": 1266,
      "aid": 1267,
      "Don": 1268,
      "wan": 1269,
      "pert": 1270,
      "tle": 1271,
      "kembali": 1272,
      "top": 1273,
      "Why": 1274,
      "br": 1275,
      "ff": 1276,
      "datang": 1277,
      "ous": 1278,
      "hidup": 1279,
      "Bagaimana": 1280,
      "av": 1281,
      "Ch": 1282,
      "bic": 1283,
      "lain": 1284,
      "annya": 1285,
      "fi": 1286,
      "too": 1287,
      "mean": 1288,
      "All": 1289,
      "tentang": 1290,
      "wak": 1291,
      "If": 1292,
      "Apakah": 1293,
      "There": 1294,
      "car": 1295,
      "ken": 1296,
      "Tak": 1297,
      "Bu": 1298,
      "Li": 1299,
      "banyak": 1300,
      "when": 1301,
      "elp": 1302,
      "Ma": 1303,
      "menjadi": 1304,
      "sesuatu": 1305,
      "terjadi": 1306,
      "other": 1307,
      "cause": 1308,
      "mel": 1309,
      "jalan": 1310,
      "ever": 1311,
      "ice": 1312,
      "bilang": 1313,
      "emu": 1314,
      "something": 1315,
      "saat": 1316,
      "pem": 1317,
      "didn": 1318,
      "berapa": 1319,
      "begitu": 1320,
      "guy": 1321,
      "oh": 1322,
      "led": 1323,
      "over": 1324,
      "atakan": 1325,
      "Ada": 1326,
      "alau": 1327,
      "mungkin": 1328,
      "orry": 1329,
      "bes": 1330,
      "ru": 1331,
      "min": 1332,
      "pri": 1333,
      "ek": 1334,
      "kannya": 1335,
      "wat": 1336,
      "pr": 1337,
      "where": 1338,
      "agus": 1339,
      "ked": 1340,
      "Ayo": 1341,
      "hir": 1342,
      "amat": 1343,
      "Jika": 1344,
      "ave": 1345,
      "really": 1346,
      "kerja": 1347,
      "sana": 1348,
      "tuh": 1349,
      "Su": 1350,
      "unggu": 1351,
      "antu": 1352,
      "An": 1353,
      "atau": 1354,
      "reat": 1355,
      "tur": 1356,
      "menc": 1357,
      "should": 1358,
      "make": 1359,
      "gil": 1360,
      "ten": 1361,
      "salah": 1362,
      "mati": 1363,
      "work": 1364,
      "sem": 1365,
      "bahwa": 1366,
      "kit": 1367,
      "karena": 1368,
      "--": 1369,
      "ob": 1370,
      "ahu": 1371,
      "Who": 1372,
      "put": 1373,
      "ity": 1374,
      "Thank": 1375,
      "hi": 1376,
      "My": 1377,
      "inta": 1378,
      "aj": 1379,
      "talk": 1380,
      "kah": 1381,
      "tan": 1382,
      "peng": 1383,
      "rum": 1384,
      "love": 1385,
      "ople": 1386,
      "sud": 1387,
      "tahun": 1388,
      "air": 1389,
      "leh": 1390,
      "bicara": 1391,
      "bang": 1392,
      "Hei": 1393,
      "fuck": 1394,
      "ty": 1395,
      "sti": 1396,
      "iku": 1397,
      "dengar": 1398,
      "les": 1399,
      "okay": 1400,
      "never": 1401,
      "bl": 1402,
      "gun": 1403,
      "iliki": 1404,
      "Mr": 1405,
      "ers": 1406,
      "sendiri": 1407,
      "tempat": 1408,
      "hu": 1409,
      "arah": 1410,
      "kap": 1411,
      "body": 1412,
      "doing": 1413,
      "anda": 1414,
      "akhir": 1415,
      "dua": 1416,
      "mendapat": 1417,
      "seb": 1418,
      "unya": 1419,
      "waktu": 1420,
      "ought": 1421,
      "happen": 1422,
      "ort": 1423,
      "ick": 1424,
      "long": 1425,
      "then": 1426,
      "little": 1427,
      "pul": 1428,
      "Is": 1429,
      "fri": 1430,
      "does": 1431,
      "bet": 1432,
      "Ken": 1433,
      "new": 1434,
      "os": 1435,
      "awa": 1436,
      "help": 1437,
      "masih": 1438,
      "Sh": 1439,
      "atan": 1440,
      "ree": 1441,
      "Men": 1442,
      "lan": 1443,
      "ady": 1444,
      "ampai": 1445,
      "self": 1446,
      "Just": 1447,
      "Terima": 1448,
      "people": 1449,
      "only": 1450,
      "bak": 1451,
      "malam": 1452,
      "age": 1453,
      "buah": 1454,
      "ach": 1455,
      "baru": 1456,
      "ta": 1457,
      "Where": 1458,
      "Re": 1459,
      "said": 1460,
      "ars": 1461,
      "par": 1462,
      "menemu": 1463,
      "Now": 1464,
      "find": 1465,
      "temu": 1466,
      "Baiklah": 1467,
      "Un": 1468,
      "dr": 1469,
      "mis": 1470,
      "aman": 1471,
      "sedang": 1472,
      "ambil": 1473,
      "again": 1474,
      "memiliki": 1475,
      "Look": 1476,
      "olah": 1477,
      "teman": 1478,
      "ame": 1479,
      "ped": 1480,
      "mul": 1481,
      "anc": 1482,
      "God": 1483,
      "ich": 1484,
      "Meng": 1485,
      "ather": 1486,
      "try": 1487,
      "perlu": 1488,
      "Sel": 1489,
      "anj": 1490,
      "friend": 1491,
      "perc": 1492,
      "ish": 1493,
      "Kamu": 1494,
      "Le": 1495,
      "pel": 1496,
      "rumah": 1497,
      "under": 1498,
      "Are": 1499,
      "even": 1500,
      "butuh": 1501,
      "won": 1502,
      "sekali": 1503,
      "bagi": 1504,
      "pi": 1505,
      "red": 1506,
      "ton": 1507,
      "uhan": 1508,
      "mengatakan": 1509,
      "ra": 1510,
      "ide": 1511,
      "fir": 1512,
      "call": 1513,
      "ning": 1514,
      "why": 1515,
      "Get": 1516,
      "membunuh": 1517,
      "bung": 1518,
      "old": 1519,
      "act": 1520,
      "ade": 1521,
      "besar": 1522,
      "iti": 1523,
      "sorry": 1524,
      "aga": 1525,
      "ving": 1526,
      "gir": 1527,
      "ves": 1528,
      "ite": 1529,
      "Maaf": 1530,
      "ass": 1531,
      "St": 1532,
      "cer": 1533,
      "much": 1534,
      "bab": 1535,
      "Sekarang": 1536,
      "kill": 1537,
      "give": 1538,
      "ans": 1539,
      "Kenapa": 1540,
      "life": 1541,
      "anmu": 1542,
      "ata": 1543,
      "stand": 1544,
      "Or": 1545,
      "fore": 1546,
      "pa": 1547,
      "masuk": 1548,
      "two": 1549,
      "Deng": 1550,
      "./": 1551,
      "into": 1552,
      "masalah": 1553,
      "bagaimana": 1554,
      "padaku": 1555,
      "katakan": 1556,
      "beberapa": 1557,
      "cara": 1558,
      "spe": 1559,
      "bagus": 1560,
      "tika": 1561,
      "sure": 1562,
      "kalau": 1563,
      "mon": 1564,
      "yg": 1565,
      "yak": 1566,
      "wr": 1567,
      "main": 1568,
      "Oke": 1569,
      "che": 1570,
      "Siapa": 1571,
      "Kar": 1572,
      "still": 1573,
      "pal": 1574,
      "cre": 1575,
      "feel": 1576,
      "than": 1577,
      "percaya": 1578,
      "siapa": 1579,
      "night": 1580,
      "may": 1581,
      "menger": 1582,
      "kup": 1583,
      "ayah": 1584,
      "ful": 1585,
      "sur": 1586,
      "hand": 1587,
      "ses": 1588,
      "Mak": 1589,
      "apun": 1590,
      "girl": 1591,
      "ane": 1592,
      "Ayah": 1593,
      "Yang": 1594,
      "Semu": 1595,
      "oun": 1596,
      "ark": 1597,
      "well": 1598,
      "name": 1599,
      "Your": 1600,
      "Ten": 1601,
      "itahu": 1602,
      "atas": 1603,
      "ool": 1604,
      "home": 1605,
      "coba": 1606,
      "bro": 1607,
      "ph": 1608,
      "away": 1609,
      "makan": 1610,
      "anything": 1611,
      "De": 1612,
      "oney": 1613,
      "Not": 1614,
      "kec": 1615,
      "cal": 1616,
      "Good": 1617,
      "pos": 1618,
      "henti": 1619,
      "side": 1620,
      "ose": 1621,
      "Al": 1622,
      "sampai": 1623,
      "Tuhan": 1624,
      "ily": 1625,
      "first": 1626,
      "ely": 1627,
      "inggal": 1628,
      "thr": 1629,
      "str": 1630,
      "tet": 1631,
      "ki": 1632,
      "bert": 1633,
      "before": 1634,
      "Mungkin": 1635,
      "these": 1636,
      "disini": 1637,
      "ready": 1638,
      "suka": 1639,
      "ft": 1640,
      "fo": 1641,
      "Can": 1642,
      "stu": 1643,
      "hil": 1644,
      "Uh": 1645,
      "dur": 1646,
      "their": 1647,
      "ways": 1648,
      "jam": 1649,
      "thought": 1650,
      "pin": 1651,
      "sebuah": 1652,
      "sebelum": 1653,
      "mm": 1654,
      "jangan": 1655,
      "pak": 1656,
      "aran": 1657,
      "aki": 1658,
      "uang": 1659,
      "because": 1660,
      "FF": 1661,
      "sedi": 1662,
      "isten": 1663,
      "cle": 1664,
      "Ple": 1665,
      "able": 1666,
      "Hal": 1667,
      "keep": 1668,
      "berada": 1669,
      "tinggal": 1670,
      "yakin": 1671,
      "kid": 1672,
      "ilah": 1673,
      "part": 1674,
      "To": 1675,
      "siap": 1676,
      "stop": 1677,
      "boy": 1678,
      "kot": 1679,
      "menemukan": 1680,
      "fu": 1681,
      "guys": 1682,
      "ence": 1683,
      "Bi": 1684,
      "bit": 1685,
      "melakukannya": 1686,
      "mulai": 1687,
      "Please": 1688,
      "must": 1689,
      "Mar": 1690,
      "sir": 1691,
      "menj": 1692,
      "bad": 1693,
      "Bukan": 1694,
      "wait": 1695,
      "gn": 1696,
      "anku": 1697,
      "angg": 1698,
      "Did": 1699,
      "bunuh": 1700,
      "Karena": 1701,
      "mendapatkan": 1702,
      "told": 1703,
      "oleh": 1704,
      "May": 1705,
      "pasti": 1706,
      "sek": 1707,
      "ingat": 1708,
      "belie": 1709,
      "Ar": 1710,
      "Ro": 1711,
      "cepat": 1712,
      "vi": 1713,
      "ner": 1714,
      "care": 1715,
      "place": 1716,
      "padamu": 1717,
      "hati": 1718,
      "last": 1719,
      "For": 1720,
      "Lihat": 1721,
      "yes": 1722,
      "set": 1723,
      "mi": 1724,
      "ko": 1725,
      "war": 1726,
      "cor": 1727,
      "anti": 1728,
      "ved": 1729,
      "after": 1730,
      "At": 1731,
      "bersama": 1732,
      "sin": 1733,
      "uli": 1734,
      "mar": 1735,
      "please": 1736,
      "res": 1737,
      "tiap": 1738,
      "oom": 1739,
      "ding": 1740,
      "run": 1741,
      "bus": 1742,
      "Benar": 1743,
      "Pak": 1744,
      "des": 1745,
      "tri": 1746,
      "Hi": 1747,
      "mengerti": 1748,
      "ory": 1749,
      "Pe": 1750,
      "sing": 1751,
      "dit": 1752,
      "apan": 1753,
      "kecil": 1754,
      "ance": 1755,
      "selalu": 1756,
      "ouse": 1757,
      "head": 1758,
      "ello": 1759,
      "Ne": 1760,
      "mengambil": 1761,
      "kur": 1762,
      "cat": 1763,
      "lot": 1764,
      "ip": 1765,
      "adis": 1766,
      "around": 1767,
      "sak": 1768,
      "When": 1769,
      "ue": 1770,
      "bertemu": 1771,
      "lama": 1772,
      "better": 1773,
      "Tu": 1774,
      "turn": 1775,
      "Ah": 1776,
      "years": 1777,
      "cr": 1778,
      "sedikit": 1779,
      "duk": 1780,
      "jah": 1781,
      "meninggal": 1782,
      "Hanya": 1783,
      "menang": 1784,
      "ask": 1785,
      "op": 1786,
      "auh": 1787,
      "things": 1788,
      "lat": 1789,
      "clo": 1790,
      "start": 1791,
      "Har": 1792,
      "berpikir": 1793,
      "luar": 1794,
      "bekerja": 1795,
      "pol": 1796,
      "cour": 1797,
      "Mengapa": 1798,
      "mur": 1799,
      "sis": 1800,
      "cukup": 1801,
      "Ibu": 1802,
      "sung": 1803,
      "ket": 1804,
      "Some": 1805,
      "coming": 1806,
      "pur": 1807,
      "ulu": 1808,
      "always": 1809,
      "Mas": 1810,
      "those": 1811,
      "asan": 1812,
      "kind": 1813,
      "gel": 1814,
      "sy": 1815,
      "pria": 1816,
      "shit": 1817,
      "Br": 1818,
      "great": 1819,
      "ketika": 1820,
      "unia": 1821,
      "fin": 1822,
      "mus": 1823,
      "Untuk": 1824,
      "ons": 1825,
      "port": 1826,
      "Tunggu": 1827,
      "gas": 1828,
      "done": 1829,
      "kata": 1830,
      "membantu": 1831,
      "world": 1832,
      "ds": 1833,
      "buruk": 1834,
      "yeah": 1835,
      "doesn": 1836,
      "mencari": 1837,
      "made": 1838,
      "father": 1839,
      "gg": 1840,
      "maksud": 1841,
      "ath": 1842,
      "semuanya": 1843,
      "fucking": 1844,
      "dead": 1845,
      "Mo": 1846,
      "lang": 1847,
      "everything": 1848,
      "nothing": 1849,
      "ibu": 1850,
      "eli": 1851,
      "unj": 1852,
      "stay": 1853,
      "tain": 1854,
      "alian": 1855,
      "hear": 1856,
      "buk": 1857,
      "{\\": 1858,
      "play": 1859,
      "ait": 1860,
      "tangan": 1861,
      "seseorang": 1862,
      "Mem": 1863,
      "Then": 1864,
      "tor": 1865,
      "usah": 1866,
      "fam": 1867,
      "gen": 1868,
      "ren": 1869,
      "terlalu": 1870,
      "mele": 1871,
      "show": 1872,
      "AN": 1873,
      "ira": 1874,
      "dam": 1875,
      "believe": 1876,
      "dian": 1877,
      "awan": 1878,
      "through": 1879,
      "happened": 1880,
      "Hello": 1881,
      "gang": 1882,
      "pt": 1883,
      "ubah": 1884,
      "ayang": 1885,
      "olong": 1886,
      "leave": 1887,
      "Mari": 1888,
      "tic": 1889,
      "row": 1890,
      "understand": 1891,
      "10": 1892,
      "Bis": 1893,
      "senang": 1894,
      "dir": 1895,
      "hell": 1896,
      "sat": 1897,
      "unt": 1898,
      "takkan": 1899,
      "hon": 1900,
      "most": 1901,
      "Dr": 1902,
      "Tentu": 1903,
      "wrong": 1904,
      "money": 1905,
      "En": 1906,
      "ahkan": 1907,
      "tik": 1908,
      "ris": 1909,
      "house": 1910,
      "usia": 1911,
      "sup": 1912,
      "big": 1913,
      "Semua": 1914,
      "came": 1915,
      "akut": 1916,
      "ahan": 1917,
      "Sudah": 1918,
      "Cl": 1919,
      "memang": 1920,
      "die": 1921,
      "wanita": 1922,
      "reak": 1923,
      "Me": 1924,
      "kon": 1925,
      "ore": 1926,
      "sebagai": 1927,
      "harusnya": 1928,
      "sion": 1929,
      "Car": 1930,
      "ikut": 1931,
      "cH": 1932,
      "py": 1933,
      "jak": 1934,
      "mil": 1935,
      "mendengar": 1936,
      "merasa": 1937,
      "Selamat": 1938,
      "tetap": 1939,
      "ilih": 1940,
      "real": 1941,
      "left": 1942,
      "enang": 1943,
      "benarnya": 1944,
      "rim": 1945,
      "rest": 1946,
      "Kalian": 1947,
      "gadis": 1948,
      "mobil": 1949,
      "Every": 1950,
      "wanted": 1951,
      "plan": 1952,
      "dunia": 1953,
      "hit": 1954,
      "gunakan": 1955,
      "elas": 1956,
      "Here": 1957,
      "bahkan": 1958,
      "ake": 1959,
      "mencoba": 1960,
      "uruh": 1961,
      "\".": 1962,
      "Joh": 1963,
      "menye": 1964,
      "baw": 1965,
      "inc": 1966,
      "tar": 1967,
      "ina": 1968,
      "Bo": 1969,
      "mother": 1970,
      "less": 1971,
      "someone": 1972,
      "jauh": 1973,
      "pes": 1974,
      "kanmu": 1975,
      "Jo": 1976,
      "hasil": 1977,
      "else": 1978,
      "ters": 1979,
      "ani": 1980,
      "dar": 1981,
      "Ex": 1982,
      "tidur": 1983,
      "ji": 1984,
      "Orang": 1985,
      "found": 1986,
      "tus": 1987,
      "kenapa": 1988,
      "maaf": 1989,
      "Wait": 1990,
      "je": 1991,
      "mind": 1992,
      "kil": 1993,
      "den": 1994,
      "ze": 1995,
      "ered": 1996,
      "talking": 1997,
      "memper": 1998,
      "seri": 1999,
      "apapun": 2000,
      "bun": 2001,
      "minut": 2002,
      "Te": 2003,
      "Maksud": 2004,
      "pertama": 2005,
      "IN": 2006,
      "selama": 2007,
      "cl": 2008,
      "John": 2009,
      "Kur": 2010,
      "hur": 2011,
      "Am": 2012,
      "denganmu": 2013,
      "being": 2014,
      "minta": 2015,
      "coun": 2016,
      "menyel": 2017,
      "might": 2018,
      "Du": 2019,
      "meet": 2020,
      "Yah": 2021,
      "ori": 2022,
      "bantu": 2023,
      "buh": 2024,
      "arik": 2025,
      "rel": 2026,
      "dulu": 2027,
      "0000": 2028,
      "Gr": 2029,
      "oke": 2030,
      "setelah": 2031,
      "fun": 2032,
      "depan": 2033,
      "Dad": 2034,
      "Maybe": 2035,
      "ile": 2036,
      "looking": 2037,
      "gar": 2038,
      "land": 2039,
      "gila": 2040,
      "sho": 2041,
      "OK": 2042,
      "guh": 2043,
      "enough": 2044,
      "ction": 2045,
      "membawa": 2046,
      "ingan": 2047,
      "Ku": 2048,
      "nama": 2049,
      "pah": 2050,
      "mudian": 2051,
      "course": 2052,
      "biasa": 2053,
      "chang": 2054,
      "ev": 2055,
      "ash": 2056,
      "boleh": 2057,
      "epon": 2058,
      "ary": 2059,
      "urut": 2060,
      "fine": 2061,
      "room": 2062,
      "memberitahu": 2063,
      "Because": 2064,
      "Seperti": 2065,
      "Fr": 2066,
      "As": 2067,
      "Right": 2068,
      "Bar": 2069,
      "cap": 2070,
      "setiap": 2071,
      "Gi": 2072,
      "cont": 2073,
      "aan": 2074,
      "trying": 2075,
      "unjuk": 2076,
      "isn": 2077,
      "getting": 2078,
      "bawah": 2079,
      "Stop": 2080,
      "One": 2081,
      "padanya": 2082,
      "On": 2083,
      "Tolong": 2084,
      "Sa": 2085,
      "yourself": 2086,
      "person": 2087,
      "kota": 2088,
      "cur": 2089,
      "pekerja": 2090,
      "saw": 2091,
      "ben": 2092,
      "ote": 2093,
      "inginkan": 2094,
      "family": 2095,
      "lie": 2096,
      "ago": 2097,
      "xt": 2098,
      "tahan": 2099,
      "Dengar": 2100,
      "augh": 2101,
      "ungan": 2102,
      "ban": 2103,
      "tually": 2104,
      "bal": 2105,
      "mal": 2106,
      "jut": 2107,
      "brother": 2108,
      "remember": 2109,
      "move": 2110,
      "amanya": 2111,
      "Lu": 2112,
      "ming": 2113,
      "sakit": 2114,
      "gether": 2115,
      "berhenti": 2116,
      "dre": 2117,
      "three": 2118,
      "Bagus": 2119,
      "terakhir": 2120,
      "ower": 2121,
      "gera": 2122,
      "job": 2123,
      "bor": 2124,
      "000": 2125,
      "same": 2126,
      "kepada": 2127,
      "pulang": 2128,
      "its": 2129,
      "Man": 2130,
      "another": 2131,
      "cinta": 2132,
      "ings": 2133,
      "dirimu": 2134,
      "today": 2135,
      "takut": 2136,
      "empat": 2137,
      "aul": 2138,
      "light": 2139,
      "sal": 2140,
      "best": 2141,
      "20": 2142,
      "hard": 2143,
      "many": 2144,
      "ont": 2145,
      "sayang": 2146,
      "use": 2147,
      "col": 2148,
      "mengen": 2149,
      "harap": 2150,
      "dang": 2151,
      "pet": 2152,
      "chil": 2153,
      "tanpa": 2154,
      "pret": 2155,
      "arti": 2156,
      "doh": 2157,
      "terus": 2158,
      "mun": 2159,
      "cut": 2160,
      "killed": 2161,
      "together": 2162,
      "hubung": 2163,
      "pis": 2164,
      "ctor": 2165,
      "bas": 2166,
      "bir": 2167,
      "live": 2168,
      "Kem": 2169,
      "fr": 2170,
      "til": 2171,
      "cy": 2172,
      "huh": 2173,
      "went": 2174,
      "baby": 2175,
      "Ayolah": 2176,
      "Pen": 2177,
      "blem": 2178,
      "wasn": 2179,
      "gotta": 2180,
      "Jack": 2181,
      "imu": 2182,
      "bay": 2183,
      "wanna": 2184,
      "pent": 2185,
      "berbicara": 2186,
      "tua": 2187,
      "seen": 2188,
      "ord": 2189,
      "....": 2190,
      "wab": 2191,
      "terlihat": 2192,
      "fight": 2193,
      "Thanks": 2194,
      "atuh": 2195,
      "heart": 2196,
      "ents": 2197,
      "att": 2198,
      "Co": 2199,
      "tow": 2200,
      "Sam": 2201,
      "intai": 2202,
      "hor": 2203,
      "ture": 2204,
      "Take": 2205,
      "sch": 2206,
      "bulan": 2207,
      "ffer": 2208,
      "problem": 2209,
      "Sorry": 2210,
      "already": 2211,
      "bagian": 2212,
      "jo": 2213,
      "Lalu": 2214,
      "ampir": 2215,
      "dad": 2216,
      "band": 2217,
      "olo": 2218,
      "ley": 2219,
      "tup": 2220,
      "zy": 2221,
      "Sir": 2222,
      "Amer": 2223,
      "tiga": 2224,
      "ER": 2225,
      "memberikan": 2226,
      "Kurasa": 2227,
      "atur": 2228,
      "heard": 2229,
      "urus": 2230,
      "embak": 2231,
      "kha": 2232,
      "Halo": 2233,
      "entar": 2234,
      "bers": 2235,
      "memu": 2236,
      "rah": 2237,
      "terima": 2238,
      "Akan": 2239,
      "Ce": 2240,
      "swe": 2241,
      "point": 2242,
      "times": 2243,
      "watir": 2244,
      "polisi": 2245,
      "Kalau": 2246,
      "lam": 2247,
      "next": 2248,
      "hold": 2249,
      "Ser": 2250,
      "jawab": 2251,
      "jar": 2252,
      "menu": 2253,
      "pertinya": 2254,
      "cond": 2255,
      "inter": 2256,
      "Dimana": 2257,
      "jang": 2258,
      "yet": 2259,
      "eluar": 2260,
      "lap": 2261,
      "dekat": 2262,
      "berhasil": 2263,
      "hilangan": 2264,
      "knew": 2265,
      "thank": 2266,
      "dri": 2267,
      "tim": 2268,
      "khawatir": 2269,
      "segera": 2270,
      "ts": 2271,
      "apakah": 2272,
      "Maksudku": 2273,
      "iss": 2274,
      "Lo": 2275,
      "senj": 2276,
      "bodoh": 2277,
      "menunggu": 2278,
      "gl": 2279,
      "dem": 2280,
      "Any": 2281,
      "era": 2282,
      "para": 2283,
      "ping": 2284,
      "ps": 2285,
      "ear": 2286,
      "face": 2287,
      "janj": 2288,
      "penting": 2289,
      "jum": 2290,
      "kehilangan": 2291,
      "door": 2292,
      "ason": 2293,
      "seles": 2294,
      "butuhkan": 2295,
      "selesai": 2296,
      "ship": 2297,
      "rasa": 2298,
      "nice": 2299,
      "idea": 2300,
      "pay": 2301,
      "peduli": 2302,
      "Mi": 2303,
      "ampak": 2304,
      "Pr": 2305,
      "took": 2306,
      "ste": 2307,
      "Ste": 2308,
      "ques": 2309,
      "ling": 2310,
      "Mom": 2311,
      "leep": 2312,
      "Wow": 2313,
      "elah": 2314,
      "hour": 2315,
      "sit": 2316,
      "listen": 2317,
      "sebenarnya": 2318,
      "engah": 2319,
      "days": 2320,
      "hed": 2321,
      "Pre": 2322,
      "ancur": 2323,
      "ried": 2324,
      "whole": 2325,
      "Em": 2326,
      "intah": 2327,
      "week": 2328,
      "sol": 2329,
      "kom": 2330,
      "hing": 2331,
      "seharusnya": 2332,
      "Tr": 2333,
      "Fuck": 2334,
      "ated": 2335,
      "lly": 2336,
      "gone": 2337,
      "curi": 2338,
      "Of": 2339,
      "meninggalkan": 2340,
      "Saat": 2341,
      "manusia": 2342,
      "lice": 2343,
      "open": 2344,
      "break": 2345,
      "prom": 2346,
      "boh": 2347,
      "istri": 2348,
      "wer": 2349,
      "belak": 2350,
      "buka": 2351,
      "Dengan": 2352,
      "nor": 2353,
      "maybe": 2354,
      "kor": 2355,
      "kenal": 2356,
      "Have": 2357,
      "without": 2358,
      "New": 2359,
      "deal": 2360,
      "bring": 2361,
      "school": 2362,
      "hot": 2363,
      "lost": 2364,
      "ise": 2365,
      "antai": 2366,
      "ating": 2367,
      "mes": 2368,
      "melihatnya": 2369,
      "menik": 2370,
      "guess": 2371,
      "pres": 2372,
      "ajar": 2373,
      "ng": 2374,
      "watch": 2375,
      "Tuan": 2376,
      "terbaik": 2377,
      "called": 2378,
      "arakan": 2379,
      "ins": 2380,
      "Sayang": 2381,
      "tuju": 2382,
      "menyer": 2383,
      "low": 2384,
      "uma": 2385,
      "unjukkan": 2386,
      "Tell": 2387,
      "peny": 2388,
      "Cepat": 2389,
      "fil": 2390,
      "gerak": 2391,
      "Wi": 2392,
      "saying": 2393,
      "used": 2394,
      "Char": 2395,
      "tau": 2396,
      "wouldn": 2397,
      "med": 2398,
      "upakan": 2399,
      "berdua": 2400,
      "far": 2401,
      "untukmu": 2402,
      "laki": 2403,
      "kemudian": 2404,
      "rol": 2405,
      "question": 2406,
      "ition": 2407,
      "fs": 2408,
      "which": 2409,
      "Like": 2410,
      "ona": 2411,
      "Will": 2412,
      "satunya": 2413,
      "cul": 2414,
      "friends": 2415,
      "entikan": 2416,
      "tepat": 2417,
      "pretty": 2418,
      "inv": 2419,
      "gan": 2420,
      "\"?": 2421,
      "uru": 2422,
      "80": 2423,
      "key": 2424,
      "fer": 2425,
      "dara": 2426,
      "membi": 2427,
      "Gu": 2428,
      "jelas": 2429,
      "See": 2430,
      "mata": 2431,
      "menit": 2432,
      "cari": 2433,
      "ail": 2434,
      "alone": 2435,
      "pagi": 2436,
      "mengapa": 2437,
      "Satu": 2438,
      "blood": 2439,
      "case": 2440,
      "mener": 2441,
      "Um": 2442,
      "sebut": 2443,
      "dimana": 2444,
      "matter": 2445,
      "rid": 2446,
      "hebat": 2447,
      "kul": 2448,
      "Hai": 2449,
      "Tom": 2450,
      "Tn": 2451,
      "paling": 2452,
      "tol": 2453,
      "tugas": 2454,
      "darah": 2455,
      "eral": 2456,
      "iksa": 2457,
      "kitar": 2458,
      "anyone": 2459,
      "indah": 2460,
      "few": 2461,
      "Sial": 2462,
      "belakang": 2463,
      "kepal": 2464,
      "menggunakan": 2465,
      "cho": 2466,
      "kum": 2467,
      "pekerjaan": 2468,
      "sebentar": 2469,
      "duduk": 2470,
      "keluarga": 2471,
      "asy": 2472,
      "woman": 2473,
      "suppo": 2474,
      "phone": 2475,
      "ness": 2476,
      "mencintai": 2477,
      "kun": 2478,
      ",..": 2479,
      "la": 2480,
      "sempat": 2481,
      "Nah": 2482,
      "selamat": 2483,
      "while": 2484,
      "lay": 2485,
      "word": 2486,
      "sih": 2487,
      "cuse": 2488,
      "Jes": 2489,
      "kuat": 2490,
      "membiarkan": 2491,
      "sum": 2492,
      "Give": 2493,
      "sulit": 2494,
      "llow": 2495,
      "differ": 2496,
      "asti": 2497,
      "Ho": 2498,
      "bohong": 2499,
      "masa": 2500,
      "awat": 2501,
      "wife": 2502,
      "pic": 2503,
      "Ing": 2504,
      "janji": 2505,
      "year": 2506,
      "kabar": 2507,
      "Put": 2508,
      "kal": 2509,
      "sau": 2510,
      "tunggu": 2511,
      "Set": 2512,
      "ele": 2513,
      "worry": 2514,
      "pot": 2515,
      "sm": 2516,
      "bawa": 2517,
      "penj": 2518,
      "cana": 2519,
      "panjang": 2520,
      "ned": 2521,
      "once": 2522,
      "myself": 2523,
      "membaw": 2524,
      "Atau": 2525,
      "aneh": 2526,
      "Katakan": 2527,
      "indung": 2528,
      "ster": 2529,
      "tal": 2530,
      "tiba": 2531,
      "gent": 2532,
      "lar": 2533,
      "read": 2534,
      "mengi": 2535,
      "razy": 2536,
      "morning": 2537,
      "itch": 2538,
      "sign": 2539,
      "ukan": 2540,
      "senjata": 2541,
      "buny": 2542,
      "Whoa": 2543,
      "minum": 2544,
      "mit": 2545,
      "pang": 2546,
      "uni": 2547,
      "soon": 2548,
      "fect": 2549,
      "pembunuh": 2550,
      "shot": 2551,
      "power": 2552,
      "tif": 2553,
      "both": 2554,
      "ones": 2555,
      "milik": 2556,
      "walk": 2557,
      "ations": 2558,
      "hus": 2559,
      "seluruh": 2560,
      "cus": 2561,
      "pus": 2562,
      "menyelamat": 2563,
      "line": 2564,
      "ca": 2565,
      "Listen": 2566,
      "30": 2567,
      "misi": 2568,
      "infor": 2569,
      "beda": 2570,
      "wants": 2571,
      "haven": 2572,
      "actly": 2573,
      "sible": 2574,
      "asanya": 2575,
      "Con": 2576,
      "sekolah": 2577,
      "tun": 2578,
      "aja": 2579,
      "high": 2580,
      "jatuh": 2581,
      "iness": 2582,
      "berjalan": 2583,
      "actually": 2584,
      "ampu": 2585,
      "kos": 2586,
      "hurt": 2587,
      "Sem": 2588,
      "Maafkan": 2589,
      "With": 2590,
      "Anak": 2591,
      "nanti": 2592,
      "Really": 2593,
      "Che": 2594,
      "Ben": 2595,
      "El": 2596,
      "eyes": 2597,
      "ball": 2598,
      "Dari": 2599,
      "ator": 2600,
      "memer": 2601,
      "hope": 2602,
      "pakai": 2603,
      "such": 2604,
      "bol": 2605,
      "fn": 2606,
      "win": 2607,
      "aikan": 2608,
      "sekitar": 2609,
      "num": 2610,
      "sleep": 2611,
      "until": 2612,
      "dengarkan": 2613,
      "situ": 2614,
      "tonight": 2615,
      "Bisa": 2616,
      "beau": 2617,
      "drink": 2618,
      "seem": 2619,
      "disana": 2620,
      "ouble": 2621,
      "TH": 2622,
      "cked": 2623,
      "Itulah": 2624,
      "fire": 2625,
      "berarti": 2626,
      "als": 2627,
      "acam": 2628,
      "AR": 2629,
      "kamar": 2630,
      "ING": 2631,
      "Ab": 2632,
      "kak": 2633,
      "inside": 2634,
      "true": 2635,
      "bermain": 2636,
      "nis": 2637,
      "hey": 2638,
      "Semuanya": 2639,
      "det": 2640,
      "tolong": 2641,
      "bergerak": 2642,
      "Bel": 2643,
      "happy": 2644,
      "memak": 2645,
      "crazy": 2646,
      "law": 2647,
      "scar": 2648,
      "soal": 2649,
      "Ast": 2650,
      "eat": 2651,
      "bangun": 2652,
      "cri": 2653,
      "second": 2654,
      "gre": 2655,
      "tru": 2656,
      "Qu": 2657,
      "clear": 2658,
      "menge": 2659,
      "19": 2660,
      "segal": 2661,
      "water": 2662,
      "tadi": 2663,
      "keras": 2664,
      "Bl": 2665,
      "adang": 2666,
      "lem": 2667,
      "kira": 2668,
      "pon": 2669,
      "luck": 2670,
      "couldn": 2671,
      "ulang": 2672,
      "aughter": 2673,
      "also": 2674,
      "king": 2675,
      "ward": 2676,
      "everyone": 2677,
      "berikan": 2678,
      "bably": 2679,
      "ms": 2680,
      "ayo": 2681,
      "kesempat": 2682,
      "bertanya": 2683,
      "penuh": 2684,
      "death": 2685,
      "gs": 2686,
      "book": 2687,
      "lear": 2688,
      "working": 2689,
      "beritahu": 2690,
      "tentu": 2691,
      "change": 2692,
      "pilih": 2693,
      "perang": 2694,
      "usaha": 2695,
      "trust": 2696,
      "50": 2697,
      "late": 2698,
      "biarkan": 2699,
      "Hmm": 2700,
      "teri": 2701,
      "ison": 2702,
      "close": 2703,
      "buru": 2704,
      "vel": 2705,
      "mom": 2706,
      "check": 2707,
      "Pergi": 2708,
      "Wal": 2709,
      "Je": 2710,
      "sungguh": 2711,
      "ler": 2712,
      "barang": 2713,
      "minutes": 2714,
      "nam": 2715,
      "Frank": 2716,
      "knows": 2717,
      "Po": 2718,
      "Keluar": 2719,
      "sialan": 2720,
      "agu": 2721,
      "Tet": 2722,
      "speak": 2723,
      "bed": 2724,
      "Ketika": 2725,
      "since": 2726,
      "damn": 2727,
      "met": 2728,
      "ili": 2729,
      "asar": 2730,
      "ither": 2731,
      "memberi": 2732,
      "buil": 2733,
      "thinking": 2734,
      "says": 2735,
      "por": 2736,
      "sim": 2737,
      "kawan": 2738,
      "secara": 2739,
      "nyata": 2740,
      "means": 2741,
      "jalanan": 2742,
      "lic": 2743,
      "Ge": 2744,
      "tiful": 2745,
      "month": 2746,
      "mine": 2747,
      "sebelumnya": 2748,
      "etahu": 2749,
      "Cand": 2750,
      "cuma": 2751,
      "ously": 2752,
      "prote": 2753,
      "Sampai": 2754,
      "business": 2755,
      "eld": 2756,
      "mudah": 2757,
      "san": 2758,
      "ohon": 2759,
      "nie": 2760,
      "din": 2761,
      "town": 2762,
      "kesempatan": 2763,
      "chance": 2764,
      "stuff": 2765,
      "pintu": 2766,
      "berakhir": 2767,
      "asakan": 2768,
      "Fi": 2769,
      "hands": 2770,
      "kir": 2771,
      "Mm": 2772,
      "aca": 2773,
      "peri": 2774,
      "dengannya": 2775,
      "tomor": 2776,
      "menarik": 2777,
      "comp": 2778,
      "hingga": 2779,
      "cted": 2780,
      "ted": 2781,
      "sound": 2782,
      "safe": 2783,
      "cial": 2784,
      "human": 2785,
      "tomorrow": 2786,
      "rist": 2787,
      "4cH": 2788,
      "cks": 2789,
      "each": 2790,
      "Mer": 2791,
      "supposed": 2792,
      "Pem": 2793,
      "berg": 2794,
      "agar": 2795,
      "denganku": 2796,
      "rop": 2797,
      "Mich": 2798,
      "gave": 2799,
      "mess": 2800,
      "order": 2801,
      "Dam": 2802,
      "Hu": 2803,
      "Astaga": 2804,
      "tert": 2805,
      "AT": 2806,
      "aruh": 2807,
      "keku": 2808,
      "cent": 2809,
      "nak": 2810,
      "taking": 2811,
      "jur": 2812,
      "dilakukan": 2813,
      "Beg": 2814,
      "tive": 2815,
      "12": 2816,
      "char": 2817,
      "menikah": 2818,
      "gy": 2819,
      "wish": 2820,
      "alive": 2821,
      "Nothing": 2822,
      "itas": 2823,
      "ouch": 2824,
      "zz": 2825,
      "enangkan": 2826,
      "Berapa": 2827,
      "del": 2828,
      "lainnya": 2829,
      "60": 2830,
      "oper": 2831,
      "kids": 2832,
      "rat": 2833,
      "Ju": 2834,
      "mengirim": 2835,
      "pant": 2836,
      "gam": 2837,
      "ukai": 2838,
      "daughter": 2839,
      "follow": 2840,
      "sad": 2841,
      "lead": 2842,
      "hind": 2843,
      "hampir": 2844,
      "ors": 2845,
      "ram": 2846,
      "diam": 2847,
      "FFFF": 2848,
      "Sepertinya": 2849,
      "besok": 2850,
      "Excuse": 2851,
      "kosong": 2852,
      "b1": 2853,
      "kanku": 2854,
      "tas": 2855,
      "berubah": 2856,
      "Jim": 2857,
      "menembak": 2858,
      "gara": 2859,
      "alasan": 2860,
      "itulah": 2861,
      "Ale": 2862,
      "comes": 2863,
      "bukti": 2864,
      "Tur": 2865,
      "lambat": 2866,
      "free": 2867,
      "Hold": 2868,
      "telepon": 2869,
      "reason": 2870,
      "dream": 2871,
      "game": 2872,
      "15": 2873,
      "cess": 2874,
      "kehidup": 2875,
      "Dav": 2876,
      "moment": 2877,
      "different": 2878,
      "000000": 2879,
      "cantik": 2880,
      "==": 2881,
      "Sc": 2882,
      "aH": 2883,
      "4aH": 2884,
      "4cH000000": 2885,
      "Pri": 2886,
      "tampak": 2887,
      "4aH80": 2888,
      "fnCand": 2889,
      "fnCandara": 2890,
      "lau": 2891,
      "vo": 2892,
      "exactly": 2893,
      "police": 2894,
      "Com": 2895,
      "impi": 2896,
      "fall": 2897,
      "story": 2898,
      "beautiful": 2899,
      "enda": 2900,
      "Biarkan": 2901,
      "urutmu": 2902,
      "EN": 2903,
      "antung": 2904,
      "pain": 2905,
      "looks": 2906,
      "tinggi": 2907,
      "?\"": 2908,
      "minggu": 2909,
      "Kap": 2910,
      "Ha": 2911,
      "later": 2912,
      "raid": 2913,
      "His": 2914,
      "Sangat": 2915,
      "vie": 2916,
      "though": 2917,
      "Her": 2918,
      "antara": 2919,
      "ork": 2920,
      "oran": 2921,
      "save": 2922,
      "elcome": 2923,
      "team": 2924,
      "Ver": 2925,
      "anymore": 2926,
      "fl": 2927,
      "tum": 2928,
      "five": 2929,
      "having": 2930,
      "bitch": 2931,
      "lari": 2932,
      "Wil": 2933,
      "awal": 2934,
      "hilang": 2935,
      "minute": 2936,
      "kaki": 2937,
      "dent": 2938,
      "Huh": 2939,
      "ces": 2940,
      "kemari": 2941,
      "fav": 2942,
      "child": 2943,
      "wajah": 2944,
      "rus": 2945,
      "turun": 2946,
      "Sebuah": 2947,
      "buku": 2948,
      "Ia": 2949,
      "berkata": 2950,
      "shoot": 2951,
      "ird": 2952,
      "lion": 2953,
      "Got": 2954,
      "Mau": 2955,
      "makes": 2956,
      "menya": 2957,
      "putus": 2958,
      "ale": 2959,
      "ilang": 2960,
      "gilah": 2961,
      "...?": 2962,
      "Cap": 2963,
      "died": 2964,
      "lose": 2965,
      "berharap": 2966,
      "dok": 2967,
      "pertanya": 2968,
      "bot": 2969,
      "tubuh": 2970,
      "upa": 2971,
      "meminta": 2972,
      "truth": 2973,
      "kepala": 2974,
      "elepon": 2975,
      "least": 2976,
      "possible": 2977,
      "jahat": 2978,
      "ross": 2979,
      "ian": 2980,
      "Mor": 2981,
      "angkap": 2982,
      "probably": 2983,
      "mag": 2984,
      "vis": 2985,
      "Ed": 2986,
      "outh": 2987,
      "berbeda": 2988,
      "dec": 2989,
      "lin": 2990,
      "ards": 2991,
      "sus": 2992,
      "Cu": 2993,
      "kulakukan": 2994,
      "city": 2995,
      "membuatku": 2996,
      "ident": 2997,
      "Par": 2998,
      "menyak": 2999,
      "ax": 3000,
      "cing": 3001,
      "behind": 3002,
      "Setelah": 3003,
      "mengu": 3004,
      "ael": 3005,
      "ayar": 3006,
      "menangkap": 3007,
      "pie": 3008,
      "membutuhkan": 3009,
      "roy": 3010,
      "acar": 3011,
      "sent": 3012,
      "bag": 3013,
      "gets": 3014,
      "langsung": 3015,
      "lock": 3016,
      "atch": 3017,
      "ky": 3018,
      "Berhenti": 3019,
      "muda": 3020,
      "Ny": 3021,
      "pint": 3022,
      "import": 3023,
      "untung": 3024,
      "Benarkah": 3025,
      "fast": 3026,
      "Gre": 3027,
      "ON": 3028,
      "cept": 3029,
      "menyelamatkan": 3030,
      "..,..": 3031,
      "easy": 3032,
      "bahaya": 3033,
      "ulis": 3034,
      "Nam": 3035,
      "Mu": 3036,
      "making": 3037,
      "wonder": 3038,
      "pid": 3039,
      "bicarakan": 3040,
      "Tho": 3041,
      "Bisakah": 3042,
      "ganggu": 3043,
      "Pro": 3044,
      "ikuti": 3045,
      "marah": 3046,
      "sc": 3047,
      "ince": 3048,
      "askan": 3049,
      "Alex": 3050,
      "ham": 3051,
      "half": 3052,
      "hubungan": 3053,
      "Kum": 3054,
      "four": 3055,
      "bebas": 3056,
      "afraid": 3057,
      "Af": 3058,
      "samp": 3059,
      "OU": 3060,
      "erest": 3061,
      "ancurkan": 3062,
      "Sen": 3063,
      "diriku": 3064,
      "menyenangkan": 3065,
      "tern": 3066,
      "kasus": 3067,
      "angkat": 3068,
      "Dalam": 3069,
      "obat": 3070,
      "sejak": 3071,
      "asked": 3072,
      "important": 3073,
      "against": 3074,
      "ks": 3075,
      "dest": 3076,
      "BI": 3077,
      "kus": 3078,
      "send": 3079,
      "pikirkan": 3080,
      "Lebih": 3081,
      "front": 3082,
      "kapal": 3083,
      "secre": 3084,
      "jen": 3085,
      "balik": 3086,
      "tenang": 3087,
      "angun": 3088,
      "cerita": 3089,
      "hours": 3090,
      "film": 3091,
      "usi": 3092,
      "number": 3093,
      "van": 3094,
      "Mel": 3095,
      "mad": 3096,
      "figu": 3097,
      "kekuatan": 3098,
      "Bro": 3099,
      "esta": 3100,
      "luka": 3101,
      "Our": 3102,
      "und": 3103,
      "maksudmu": 3104,
      "ital": 3105,
      "ced": 3106,
      "Even": 3107,
      "fact": 3108,
      "bantuan": 3109,
      "que": 3110,
      "ies": 3111,
      "trans": 3112,
      "kehidupan": 3113,
      "Bye": 3114,
      "membayar": 3115,
      "waiting": 3116,
      "berusaha": 3117,
      "Mon": 3118,
      "rip": 3119,
      "kesalah": 3120,
      "yours": 3121,
      "ney": 3122,
      "ates": 3123,
      "buang": 3124,
      "cuali": 3125,
      "Diam": 3126,
      "ala": 3127,
      "stre": 3128,
      "daripada": 3129,
      "11": 3130,
      "medi": 3131,
      "bom": 3132,
      "Dapat": 3133,
      "These": 3134,
      "asia": 3135,
      "past": 3136,
      "Pu": 3137,
      "Peng": 3138,
      "...,": 3139,
      "plain": 3140,
      "Keep": 3141,
      "Sil": 3142,
      "keber": 3143,
      "atang": 3144,
      "Bill": 3145,
      "agia": 3146,
      "Sure": 3147,
      "memanggil": 3148,
      "leav": 3149,
      "Miss": 3150,
      "maka": 3151,
      "Ad": 3152,
      "mengetahu": 3153,
      "serius": 3154,
      "Does": 3155,
      "party": 3156,
      "bing": 3157,
      "Help": 3158,
      "ring": 3159,
      "ungguh": 3160,
      "Shit": 3161,
      "Amerika": 3162,
      "ruang": 3163,
      "sister": 3164,
      "anyakan": 3165,
      "ef": 3166,
      "mengg": 3167,
      "Christ": 3168,
      "Tenang": 3169,
      "dirinya": 3170,
      "vic": 3171,
      "ween": 3172,
      "Bahkan": 3173,
      "god": 3174,
      "omor": 3175,
      "young": 3176,
      "menghu": 3177,
      "Hentikan": 3178,
      "kemati": 3179,
      "Nor": 3180,
      "trouble": 3181,
      "jual": 3182,
      "cou": 3183,
      "kese": 3184,
      "acara": 3185,
      "Han": 3186,
      "ision": 3187,
      "beri": 3188,
      "bahagia": 3189,
      "Michael": 3190,
      "train": 3191,
      "nap": 3192,
      "tul": 3193,
      "fas": 3194,
      "dren": 3195,
      "till": 3196,
      "cel": 3197,
      "Mc": 3198,
      "anggung": 3199,
      "Dis": 3200,
      "melindung": 3201,
      "buy": 3202,
      "tried": 3203,
      "lub": 3204,
      "Joe": 3205,
      "cah": 3206,
      "mere": 3207,
      "aren": 3208,
      "anjing": 3209,
      "control": 3210,
      "mengenal": 3211,
      "telling": 3212,
      "arch": 3213,
      "favor": 3214,
      "Peter": 3215,
      "ikirkan": 3216,
      "Yo": 3217,
      "ae": 3218,
      "Ac": 3219,
      "lupa": 3220,
      "sil": 3221,
      "lalui": 3222,
      "wal": 3223,
      "memilih": 3224,
      "eh": 3225,
      "spon": 3226,
      "needs": 3227,
      "touch": 3228,
      "mari": 3229,
      "100": 3230,
      "lab": 3231,
      "Jesus": 3232,
      "Nick": 3233,
      "perintah": 3234,
      "anjut": 3235,
      "perjalanan": 3236,
      "pick": 3237,
      "luk": 3238,
      "pect": 3239,
      "panggil": 3240,
      "menuju": 3241,
      "Bob": 3242,
      "sex": 3243,
      "started": 3244,
      "appe": 3245,
      "Bukankah": 3246,
      "itakan": 3247,
      "interest": 3248,
      "leg": 3249,
      "bul": 3250,
      "baj": 3251,
      "suara": 3252,
      "dik": 3253,
      "allow": 3254,
      "tetapi": 3255,
      "vers": 3256,
      "tom": 3257,
      "pertanyaan": 3258,
      "AL": 3259,
      "belajar": 3260,
      "radi": 3261,
      "Min": 3262,
      "qui": 3263,
      "promise": 3264,
      "oul": 3265,
      "Americ": 3266,
      "Nice": 3267,
      "bin": 3268,
      "goes": 3269,
      "vil": 3270,
      "makanan": 3271,
      "prof": 3272,
      "rencana": 3273,
      "Stay": 3274,
      "kadang": 3275,
      "Harus": 3276,
      "Lord": 3277,
      "masi": 3278,
      "uman": 3279,
      "answer": 3280,
      "tanya": 3281,
      "ys": 3282,
      "York": 3283,
      "Clark": 3284,
      "bud": 3285,
      "ahe": 3286,
      "comple": 3287,
      "wear": 3288,
      "brought": 3289,
      "Would": 3290,
      "David": 3291,
      "cool": 3292,
      "whatever": 3293,
      "Pel": 3294,
      "menyukai": 3295,
      "zing": 3296,
      "akhirnya": 3297,
      "sendirian": 3298,
      "cell": 3299,
      "meme": 3300,
      "forget": 3301,
      "kemana": 3302,
      "sub": 3303,
      "ony": 3304,
      "ange": 3305,
      "full": 3306,
      "kapan": 3307,
      "mainan": 3308,
      "Two": 3309,
      "sense": 3310,
      "hate": 3311,
      "Great": 3312,
      "outside": 3313,
      "Kep": 3314,
      "menunjukkan": 3315,
      "naik": 3316,
      "isti": 3317,
      "hak": 3318,
      "Kup": 3319,
      "strong": 3320,
      "sw": 3321,
      "Pasti": 3322,
      "AS": 3323,
      "temukan": 3324,
      "sep": 3325,
      "between": 3326,
      "vin": 3327,
      "Berikan": 3328,
      "menelepon": 3329,
      "pesta": 3330,
      "gram": 3331,
      "bye": 3332,
      "rak": 3333,
      "sembuny": 3334,
      "tanah": 3335,
      "onya": 3336,
      "baiknya": 3337,
      "Jer": 3338,
      "tuan": 3339,
      "step": 3340,
      "After": 3341,
      "boys": 3342,
      "Pat": 3343,
      "kedua": 3344,
      "loo": 3345,
      "ologi": 3346,
      "agak": 3347,
      "ited": 3348,
      "become": 3349,
      "tunya": 3350,
      "Kumohon": 3351,
      "girls": 3352,
      "penjara": 3353,
      "Jen": 3354,
      "membuatnya": 3355,
      "miss": 3356,
      "return": 3357,
      "habis": 3358,
      "impin": 3359,
      "kantor": 3360,
      "ure": 3361,
      "ged": 3362,
      "fre": 3363,
      "scre": 3364,
      "melawan": 3365,
      "cli": 3366,
      "mentara": 3367,
      "ayahmu": 3368,
      "Mrs": 3369,
      "dire": 3370,
      "lives": 3371,
      "wind": 3372,
      "spir": 3373,
      "alami": 3374,
      "ground": 3375,
      "Dua": 3376,
      "hang": 3377,
      "sun": 3378,
      "mohon": 3379,
      "bank": 3380,
      "ief": 3381,
      "sebab": 3382,
      "mission": 3383,
      "berc": 3384,
      "danger": 3385,
      "clean": 3386,
      "Hari": 3387,
      "wed": 3388,
      "impan": 3389,
      "worth": 3390,
      "couple": 3391,
      "Shut": 3392,
      "dokter": 3393,
      "hmm": 3394,
      "erem": 3395,
      "ahead": 3396,
      "melalui": 3397,
      "membuatmu": 3398,
      "children": 3399,
      "dog": 3400,
      "menerima": 3401,
      "untukku": 3402,
      "putri": 3403,
      "tanda": 3404,
      "ault": 3405,
      "Max": 3406,
      "murder": 3407,
      "fell": 3408,
      "husband": 3409,
      "taken": 3410,
      "Which": 3411,
      "normal": 3412,
      "shall": 3413,
      "rahasia": 3414,
      "pesan": 3415,
      "bersam": 3416,
      "Hen": 3417,
      "memas": 3418,
      "ainya": 3419,
      "Seorang": 3420,
      "vide": 3421,
      "star": 3422,
      "mimpi": 3423,
      "mencintaimu": 3424,
      "Bur": 3425,
      "ched": 3426,
      "Senang": 3427,
      "sepanjang": 3428,
      "negara": 3429,
      "abung": 3430,
      "planet": 3431,
      "han": 3432,
      "terlambat": 3433,
      "puan": 3434,
      "Red": 3435,
      "vice": 3436,
      "menghubung": 3437,
      "bajingan": 3438,
      "ilahkan": 3439,
      "cover": 3440,
      "engsek": 3441,
      "Col": 3442,
      "almost": 3443,
      "zed": 3444,
      "Pada": 3445,
      "pilihan": 3446,
      "Cor": 3447,
      "aka": 3448,
      "ical": 3449,
      "hy": 3450,
      "alahkan": 3451,
      "scared": 3452,
      "sial": 3453,
      "perasa": 3454,
      "lying": 3455,
      "Juli": 3456,
      "oud": 3457,
      "pass": 3458,
      "running": 3459,
      "arap": 3460,
      "ran": 3461,
      "puter": 3462,
      "ames": 3463,
      "ished": 3464,
      "gambar": 3465,
      "Permisi": 3466,
      "mand": 3467,
      "Ker": 3468,
      "drop": 3469,
      "beat": 3470,
      "ayahku": 3471,
      "pesawat": 3472,
      "lor": 3473,
      "Mike": 3474,
      "Was": 3475,
      "grand": 3476,
      "tes": 3477,
      "gag": 3478,
      "surat": 3479,
      "paham": 3480,
      "hadap": 3481,
      "ene": 3482,
      "Fo": 3483,
      "super": 3484,
      "Ambil": 3485,
      "makin": 3486,
      "lucu": 3487,
      "merasakan": 3488,
      "news": 3489,
      "By": 3490,
      "ause": 3491,
      "Presi": 3492,
      "respon": 3493,
      "menemukannya": 3494,
      "wood": 3495,
      "Kupikir": 3496,
      "somebody": 3497,
      "months": 3498,
      "Sialan": 3499,
      "Entah": 3500,
      "stupid": 3501,
      "purna": 3502,
      "Wak": 3503,
      "Move": 3504,
      "iter": 3505,
      "cannot": 3506,
      "Mat": 3507,
      "tidaknya": 3508,
      "ual": 3509,
      "bon": 3510,
      "hut": 3511,
      "doctor": 3512,
      "melihatmu": 3513,
      "mend": 3514,
      "drive": 3515,
      "membunuhnya": 3516,
      "inst": 3517,
      "lik": 3518,
      "Oli": 3519,
      "six": 3520,
      "Everything": 3521,
      "perfect": 3522,
      "Geor": 3523,
      "berdiri": 3524,
      "panas": 3525,
      "food": 3526,
      "Pol": 3527,
      "kurasa": 3528,
      "jakan": 3529,
      "memakai": 3530,
      "Biar": 3531,
      "kesalahan": 3532,
      "onton": 3533,
      "feeling": 3534,
      "either": 3535,
      "omong": 3536,
      "Charlie": 3537,
      "Lihatlah": 3538,
      "hole": 3539,
      "setuju": 3540,
      "cok": 3541,
      "ici": 3542,
      "tra": 3543,
      "ump": 3544,
      "Sebenarnya": 3545,
      "endali": 3546,
      "married": 3547,
      "ign": 3548,
      "Bah": 3549,
      "adik": 3550,
      "kematian": 3551,
      "mengingat": 3552,
      "Bes": 3553,
      "tie": 3554,
      "Sungguh": 3555,
      "quite": 3556,
      "quick": 3557,
      "Fin": 3558,
      "country": 3559,
      "menulis": 3560,
      "demi": 3561,
      "ctive": 3562,
      "vir": 3563,
      "Say": 3564,
      "ete": 3565,
      "mencuri": 3566,
      "sick": 3567,
      "Lep": 3568,
      "bs": 3569,
      "pura": 3570,
      "irst": 3571,
      "Ooh": 3572,
      "lawan": 3573,
      "bisnis": 3574,
      "mendengarkan": 3575,
      "Mary": 3576,
      "tice": 3577,
      "kunci": 3578,
      "Kapten": 3579,
      "Captain": 3580,
      ",\"": 3581,
      "Setiap": 3582,
      "aknya": 3583,
      "awas": 3584,
      "ela": 3585,
      "Seseorang": 3586,
      "diot": 3587,
      "net": 3588,
      "IS": 3589,
      "abis": 3590,
      "dapatkan": 3591,
      "tre": 3592,
      "hormat": 3593,
      "Ri": 3594,
      "office": 3595,
      "nomor": 3596,
      "semacam": 3597,
      "King": 3598,
      "od": 3599,
      "parents": 3600,
      "shut": 3601,
      "bagai": 3602,
      "Kat": 3603,
      "muncul": 3604,
      "Masuk": 3605,
      "usahaan": 3606,
      "everybody": 3607,
      "bertahan": 3608,
      "lima": 3609,
      "40": 3610,
      "leaving": 3611,
      "ments": 3612,
      "cry": 3613,
      "belah": 3614,
      "asih": 3615,
      "roll": 3616,
      "Mmm": 3617,
      "foot": 3618,
      "keada": 3619,
      "badi": 3620,
      "gul": 3621,
      "stem": 3622,
      "Pergilah": 3623,
      "known": 3624,
      "Ear": 3625,
      "arm": 3626,
      "ila": 3627,
      "hidupku": 3628,
      "mendapatkannya": 3629,
      "pacar": 3630,
      "gin": 3631,
      "TV": 3632,
      "pend": 3633,
      "mengubah": 3634,
      "mid": 3635,
      "wati": 3636,
      "menyes": 3637,
      "foto": 3638,
      "asal": 3639,
      "weap": 3640,
      "special": 3641,
      "jumpa": 3642,
      "keluarg": 3643,
      "joy": 3644,
      "sej": 3645,
      "lue": 3646,
      "umur": 3647,
      "mengikuti": 3648,
      "menghilang": 3649,
      "intang": 3650,
      "Mes": 3651,
      "uka": 3652,
      "colle": 3653,
      "catch": 3654,
      "Teman": 3655,
      "yal": 3656,
      "sell": 3657,
      "along": 3658,
      "ride": 3659,
      "kelas": 3660,
      "lewat": 3661,
      "emp": 3662,
      "ayolah": 3663,
      "Ru": 3664,
      "beruntung": 3665,
      "Kak": 3666,
      "bercanda": 3667,
      "Something": 3668,
      "sisa": 3669,
      "fs60": 3670,
      "count": 3671,
      "jukan": 3672,
      "Tetap": 3673,
      "OR": 3674,
      "breat": 3675,
      "Lakukan": 3676,
      "nah": 3677,
      "From": 3678,
      "seems": 3679,
      "ikutnya": 3680,
      "Eh": 3681,
      "Scot": 3682,
      "black": 3683,
      "mengaj": 3684,
      "hukum": 3685,
      "segalanya": 3686,
      "Sy": 3687,
      "happens": 3688,
      "road": 3689,
      "harga": 3690,
      "Walter": 3691,
      "protect": 3692,
      "artinya": 3693,
      "menghancurkan": 3694,
      "near": 3695,
      "fic": 3696,
      "jaga": 3697,
      "asking": 3698,
      "small": 3699,
      "Tan": 3700,
      "benci": 3701,
      "Damn": 3702,
      "menci": 3703,
      "Mart": 3704,
      "hero": 3705,
      "ately": 3706,
      "onal": 3707,
      "selves": 3708,
      "Gen": 3709,
      "recor": 3710,
      "curity": 3711,
      "sia": 3712,
      "Jane": 3713,
      "pull": 3714,
      "bayi": 3715,
      "pindah": 3716,
      "action": 3717,
      "kanan": 3718,
      "mum": 3719,
      "Bet": 3720,
      "IT": 3721,
      "pok": 3722,
      "dariku": 3723,
      "Lepaskan": 3724,
      "ayangkan": 3725,
      "airs": 3726,
      "Sim": 3727,
      "val": 3728,
      "secret": 3729,
      "serious": 3730,
      "sul": 3731,
      "ampi": 3732,
      "Hur": 3733,
      "pribadi": 3734,
      "FBI": 3735,
      "Bawa": 3736,
      "gie": 3737,
      "report": 3738,
      "Vic": 3739,
      "mong": 3740,
      "berani": 3741,
      "choice": 3742,
      "Sher": 3743,
      "living": 3744,
      "Chris": 3745,
      "bakan": 3746,
      "Ak": 3747,
      "million": 3748,
      "libat": 3749,
      "company": 3750,
      "AK": 3751,
      "Henry": 3752,
      "Nak": 3753,
      "menyebut": 3754,
      "dark": 3755,
      "Ses": 3756,
      "ater": 3757,
      "takes": 3758,
      "rahat": 3759,
      "Beberapa": 3760,
      "menjaga": 3761,
      "dress": 3762,
      "Never": 3763,
      "fle": 3764,
      "Begitu": 3765,
      "mulut": 3766,
      "alaman": 3767,
      "utama": 3768,
      "latih": 3769,
      "Cukup": 3770,
      "lepas": 3771,
      "stri": 3772,
      "Very": 3773,
      "Ger": 3774,
      "ron": 3775,
      "setan": 3776,
      "sive": 3777,
      "anggap": 3778,
      "attack": 3779,
      "sering": 3780,
      "lahir": 3781,
      "funny": 3782,
      "mengetahui": 3783,
      "kurang": 3784,
      "eye": 3785,
      "box": 3786,
      "yo": 3787,
      "test": 3788,
      "diper": 3789,
      "az": 3790,
      "hotel": 3791,
      "membawanya": 3792,
      "Kapan": 3793,
      "Iya": 3794,
      "gue": 3795,
      "bie": 3796,
      "dance": 3797,
      "Only": 3798,
      "words": 3799,
      "boss": 3800,
      "semakin": 3801,
      "Call": 3802,
      "ambah": 3803,
      "birth": 3804,
      "Paul": 3805,
      "ius": 3806,
      "idence": 3807,
      "ister": 3808,
      "anakku": 3809,
      "happening": 3810,
      "Para": 3811,
      "tang": 3812,
      "menangan": 3813,
      "sepertinya": 3814,
      "alang": 3815,
      "destroy": 3816,
      "James": 3817,
      "atal": 3818,
      "angka": 3819,
      "mah": 3820,
      "emukan": 3821,
      "cam": 3822,
      "Aah": 3823,
      "pernik": 3824,
      "pakaian": 3825,
      "lady": 3826,
      "emo": 3827,
      "jujur": 3828,
      "terhadap": 3829,
      "fel": 3830,
      "agen": 3831,
      "whoa": 3832,
      "dle": 3833,
      "unk": 3834,
      "himself": 3835,
      "pembunuhan": 3836,
      "Pi": 3837,
      "reali": 3838,
      "bakar": 3839,
      "Nona": 3840,
      "Lee": 3841,
      "Big": 3842,
      "bersih": 3843,
      "Boleh": 3844,
      "berbohong": 3845,
      "sebabnya": 3846,
      "flo": 3847,
      "Ow": 3848,
      "Sun": 3849,
      "sci": 3850,
      "fai": 3851,
      "erempuan": 3852,
      "Mus": 3853,
      "hosp": 3854,
      "ens": 3855,
      "shouldn": 3856,
      "arin": 3857,
      "unch": 3858,
      "tersebut": 3859,
      "form": 3860,
      "survi": 3861,
      "iel": 3862,
      "Lau": 3863,
      "ature": 3864,
      "LA": 3865,
      "membeli": 3866,
      "Bab": 3867,
      "entang": 3868,
      "ES": 3869,
      "kesini": 3870,
      "pemer": 3871,
      "search": 3872,
      "Cause": 3873,
      "asing": 3874,
      "born": 3875,
      "imag": 3876,
      "system": 3877,
      "treat": 3878,
      "sah": 3879,
      "Fine": 3880,
      "Hol": 3881,
      "lip": 3882,
      "Master": 3883,
      "Sarah": 3884,
      "preci": 3885,
      "future": 3886,
      "ject": 3887,
      "Kembali": 3888,
      "iting": 3889,
      "US": 3890,
      "ikat": 3891,
      "Dean": 3892,
      "aight": 3893,
      "hair": 3894,
      "tit": 3895,
      "abiskan": 3896,
      "pir": 3897,
      "keli": 3898,
      "Son": 3899,
      "cold": 3900,
      "ities": 3901,
      "Cr": 3902,
      "jud": 3903,
      "ibumu": 3904,
      "deser": 3905,
      "aftar": 3906,
      "memutus": 3907,
      "anyway": 3908,
      "fan": 3909,
      "200": 3910,
      "Rich": 3911,
      "terbang": 3912,
      "moving": 3913,
      "jer": 3914,
      "tih": 3915,
      "Watch": 3916,
      "pap": 3917,
      "setengah": 3918,
      "tw": 3919,
      "sembunyi": 3920,
      "lemen": 3921,
      "ketahu": 3922,
      "bukanlah": 3923,
      "amanan": 3924,
      "Sing": 3925,
      "wall": 3926,
      "explain": 3927,
      "figure": 3928,
      "kacau": 3929,
      "dingin": 3930,
      "namanya": 3931,
      "sementara": 3932,
      "kipun": 3933,
      "given": 3934,
      "playing": 3935,
      "Mag": 3936,
      "camp": 3937,
      "Bri": 3938,
      "Dar": 3939,
      "sempurna": 3940,
      "Hati": 3941,
      "perusahaan": 3942,
      "18": 3943,
      "zin": 3944,
      "...\"": 3945,
      "Kemudian": 3946,
      "enter": 3947,
      "idiot": 3948,
      "George": 3949,
      "berat": 3950,
      "haps": 3951,
      "Phil": 3952,
      "anger": 3953,
      "certain": 3954,
      "aksi": 3955,
      "Make": 3956,
      "siang": 3957,
      "Could": 3958,
      "Kim": 3959,
      "yle": 3960,
      "onel": 3961,
      "fix": 3962,
      "prison": 3963,
      "mene": 3964,
      "membaca": 3965,
      "ond": 3966,
      "mesin": 3967,
      "pikiran": 3968,
      "hkan": 3969,
      "Tim": 3970,
      "saudara": 3971,
      "Father": 3972,
      "Lou": 3973,
      "pistol": 3974,
      "berikutnya": 3975,
      "longer": 3976,
      "dek": 3977,
      "berbahaya": 3978,
      "Wan": 3979,
      "dag": 3980,
      "menyem": 3981,
      "permainan": 3982,
      "table": 3983,
      "batu": 3984,
      "Sebelum": 3985,
      "bintang": 3986,
      "Spe": 3987,
      "atap": 3988,
      "tengah": 3989,
      "ric": 3990,
      "memikirkan": 3991,
      "field": 3992,
      "calling": 3993,
      "Raja": 3994,
      "doll": 3995,
      "ino": 3996,
      "juta": 3997,
      "Mad": 3998,
      "Memang": 3999,
      "building": 4000,
      "dear": 4001,
      "fault": 4002,
      "song": 4003,
      "inci": 4004,
      "rup": 4005,
      "korban": 4006,
      "learn": 4007,
      "YOU": 4008,
      "undang": 4009,
      "suami": 4010,
      "program": 4011,
      "puluh": 4012,
      "ush": 4013,
      "menyesal": 4014,
      "mengganggu": 4015,
      "16": 4016,
      "War": 4017,
      "!\"": 4018,
      "oga": 4019,
      "sweet": 4020,
      "ener": 4021,
      "sisi": 4022,
      "Ang": 4023,
      "keren": 4024,
      "istem": 4025,
      "round": 4026,
      "dies": 4027,
      "usan": 4028,
      "isan": 4029,
      "bersalah": 4030,
      "piece": 4031,
      "honey": 4032,
      "hentikan": 4033,
      "menyeles": 4034,
      "iling": 4035,
      "istirahat": 4036,
      "thanks": 4037,
      "\"...": 4038,
      "pho": 4039,
      "First": 4040,
      "ender": 4041,
      "gris": 4042,
      "Rum": 4043,
      "street": 4044,
      "kut": 4045,
      "aire": 4046,
      "tembak": 4047,
      "target": 4048,
      "siapapun": 4049,
      "giving": 4050,
      "rible": 4051,
      "dom": 4052,
      "ffic": 4053,
      "menurutmu": 4054,
      "pub": 4055,
      "Whatever": 4056,
      "Da": 4057,
      "igh": 4058,
      "aian": 4059,
      "presi": 4060,
      "Rob": 4061,
      "segala": 4062,
      "anybody": 4063,
      "begin": 4064,
      "others": 4065,
      "melindungi": 4066,
      "Ked": 4067,
      "surpri": 4068,
      "waktunya": 4069,
      "somewhere": 4070,
      "antar": 4071,
      "throw": 4072,
      "menyerang": 4073,
      "women": 4074,
      "monster": 4075,
      "Ko": 4076,
      "vol": 4077,
      "menghabiskan": 4078,
      "Cal": 4079,
      "menghentikan": 4080,
      "wil": 4081,
      "state": 4082,
      "ann": 4083,
      "Meny": 4084,
      "Ray": 4085,
      "bos": 4086,
      "Someone": 4087,
      "spect": 4088,
      "Semoga": 4089,
      "gor": 4090,
      "hadi": 4091,
      "div": 4092,
      "leng": 4093,
      "kidding": 4094,
      "hospital": 4095,
      "join": 4096,
      "terluka": 4097,
      "lagu": 4098,
      "ukainya": 4099,
      "Sesu": 4100,
      "kukatakan": 4101,
      "memukul": 4102,
      "dinner": 4103,
      "sadar": 4104,
      "Vi": 4105,
      "Sal": 4106,
      "fully": 4107,
      "udara": 4108,
      "otong": 4109,
      "manis": 4110,
      "bangan": 4111,
      "temanku": 4112,
      "adies": 4113,
      "blow": 4114,
      "AM": 4115,
      "ancis": 4116,
      "memutuskan": 4117,
      "ayan": 4118,
      "conf": 4119,
      "musuh": 4120,
      "present": 4121,
      "memben": 4122,
      "dasar": 4123,
      "jenis": 4124,
      "date": 4125,
      "video": 4126,
      "ories": 4127,
      "Everyone": 4128,
      "brain": 4129,
      "Hurry": 4130,
      "Tempat": 4131,
      "tama": 4132,
      "appear": 4133,
      "menyukainya": 4134,
      "Those": 4135,
      "sto": 4136,
      "sort": 4137,
      "Pas": 4138,
      "pec": 4139,
      "tig": 4140,
      "kis": 4141,
      "menjual": 4142,
      "'.": 4143,
      "rew": 4144,
      "ensi": 4145,
      "Agen": 4146,
      "lel": 4147,
      "Ty": 4148,
      "works": 4149,
      "board": 4150,
      "idup": 4151,
      "hadiah": 4152,
      "urusan": 4153,
      "weird": 4154,
      "People": 4155,
      "Lon": 4156,
      "Mal": 4157,
      "va": 4158,
      "melepas": 4159,
      "bahasa": 4160,
      "ulia": 4161,
      "aces": 4162,
      "Ag": 4163,
      "meeting": 4164,
      "mengenai": 4165,
      "perempuan": 4166,
      "pati": 4167,
      "class": 4168,
      "straight": 4169,
      "das": 4170,
      "track": 4171,
      "els": 4172,
      "pil": 4173,
      "tis": 4174,
      "acked": 4175,
      "saling": 4176,
      "Hy": 4177,
      "benda": 4178,
      "Pria": 4179,
      "Mulia": 4180,
      "kakak": 4181,
      "posisi": 4182,
      "Banyak": 4183,
      "hitam": 4184,
      "changed": 4185,
      "mengerikan": 4186,
      "oup": 4187,
      "EL": 4188,
      "worked": 4189,
      "adilan": 4190,
      "Siap": 4191,
      "buddy": 4192,
      "Sama": 4193,
      "kesana": 4194,
      "list": 4195,
      "vely": 4196,
      "atih": 4197,
      "sumpah": 4198,
      "acher": 4199,
      "fair": 4200,
      "weeks": 4201,
      "Daniel": 4202,
      "aturan": 4203,
      "Masih": 4204,
      "jin": 4205,
      "finally": 4206,
      "kejut": 4207,
      "Daddy": 4208,
      "ative": 4209,
      "iff": 4210,
      "melewati": 4211,
      "emas": 4212,
      "Mil": 4213,
      "tek": 4214,
      "menjalan": 4215,
      "gem": 4216,
      "entuh": 4217,
      "cang": 4218,
      "kubilang": 4219,
      "ror": 4220,
      "alas": 4221,
      "Emily": 4222,
      "ID": 4223,
      "baiklah": 4224,
      "tin": 4225,
      "merah": 4226,
      "radio": 4227,
      "Polisi": 4228,
      "inform": 4229,
      "ibuku": 4230,
      "ages": 4231,
      "yata": 4232,
      "cket": 4233,
      "apart": 4234,
      "entire": 4235,
      "fear": 4236,
      "25": 4237,
      "Mana": 4238,
      "mir": 4239,
      "mell": 4240,
      "lucky": 4241,
      "acc": 4242,
      "cH00": 4243,
      "sehingga": 4244,
      "grow": 4245,
      ".'": 4246,
      "sebelah": 4247,
      "mouth": 4248,
      "tong": 4249,
      "pengh": 4250,
      "bergabung": 4251,
      "laut": 4252,
      "felt": 4253,
      "Welcome": 4254,
      "solut": 4255,
      "tut": 4256,
      "view": 4257,
      "uran": 4258,
      "ero": 4259,
      "umi": 4260,
      "mengalami": 4261,
      "questions": 4262,
      "Silakan": 4263,
      "kecuali": 4264,
      "ral": 4265,
      "berita": 4266,
      "dolar": 4267,
      "Three": 4268,
      "pintar": 4269,
      "rambut": 4270,
      "fool": 4271,
      "selamanya": 4272,
      "turned": 4273,
      "gota": 4274,
      "Coba": 4275,
      "otak": 4276,
      "Mac": 4277,
      "base": 4278,
      "lies": 4279,
      "security": 4280,
      "Danny": 4281,
      "needed": 4282,
      "za": 4283,
      "Mother": 4284,
      "manapun": 4285,
      "fee": 4286,
      "akal": 4287,
      "tutup": 4288,
      "menangis": 4289,
      "rasanya": 4290,
      "kirim": 4291,
      "Over": 4292,
      "rick": 4293,
      "husus": 4294,
      "sar": 4295,
      "hatikan": 4296,
      "area": 4297,
      "berjanji": 4298,
      "\",": 4299,
      "Rus": 4300,
      "Run": 4301,
      "informasi": 4302,
      "ampil": 4303,
      "temen": 4304,
      "musim": 4305,
      "ided": 4306,
      "San": 4307,
      "feet": 4308,
      "ilai": 4309,
      "ukur": 4310,
      "gai": 4311,
      "13": 4312,
      "maksudku": 4313,
      "memeriksa": 4314,
      "Rick": 4315,
      "tot": 4316,
      "14": 4317,
      "ational": 4318,
      "achel": 4319,
      "fly": 4320,
      "missing": 4321,
      "Inggris": 4322,
      "dru": 4323,
      "ruangan": 4324,
      "Black": 4325,
      "gener": 4326,
      "menyuruh": 4327,
      "Ingat": 4328,
      "ists": 4329,
      "Mul": 4330,
      "Eli": 4331,
      "menyerah": 4332,
      "Jimmy": 4333,
      "Harry": 4334,
      "phy": 4335,
      "elak": 4336,
      "ahli": 4337,
      "ape": 4338,
      "esi": 4339,
      "pand": 4340,
      "membuka": 4341,
      "boat": 4342,
      "cow": 4343,
      "bayar": 4344,
      "Cer": 4345,
      "vered": 4346,
      "17": 4347,
      "RE": 4348,
      "forgot": 4349,
      "Menurut": 4350,
      "Que": 4351,
      "oose": 4352,
      "weren": 4353,
      "mampu": 4354,
      "Dasar": 4355,
      "'?": 4356,
      "Ram": 4357,
      "Air": 4358,
      "Sur": 4359,
      "Ba": 4360,
      "enem": 4361,
      "ches": 4362,
      "Nobody": 4363,
      "agian": 4364,
      "mayat": 4365,
      "II": 4366,
      "Dengarkan": 4367,
      "Shh": 4368,
      "Open": 4369,
      "ato": 4370,
      "bola": 4371,
      "ketahui": 4372,
      "blo": 4373,
      "kok": 4374,
      "malu": 4375,
      "music": 4376,
      "stairs": 4377,
      "Dok": 4378,
      "icarakan": 4379,
      "Victor": 4380,
      "stick": 4381,
      "lantai": 4382,
      "loved": 4383,
      "akannya": 4384,
      "detik": 4385,
      "welcome": 4386,
      "Entahlah": 4387,
      "orong": 4388,
      "defin": 4389,
      "Sch": 4390,
      "Del": 4391,
      "press": 4392,
      "dangerous": 4393,
      "asure": 4394,
      "Beri": 4395,
      "hung": 4396,
      "thy": 4397,
      "ereta": 4398,
      "bau": 4399,
      "mandi": 4400,
      "saved": 4401,
      "ahari": 4402,
      "ihir": 4403,
      "membunuhmu": 4404,
      "Sesuatu": 4405,
      "Jalan": 4406,
      "membicarakan": 4407,
      "mengejar": 4408,
      "thor": 4409,
      "ikasi": 4410,
      "apos": 4411,
      "fish": 4412,
      "mempercaya": 4413,
      "short": 4414,
      "mistake": 4415,
      "soul": 4416,
      "membangun": 4417,
      "glad": 4418,
      "indu": 4419,
      "keadaan": 4420,
      "def": 4421,
      "seeing": 4422,
      "menginginkan": 4423,
      "Leave": 4424,
      "Kom": 4425,
      "careful": 4426,
      "nes": 4427,
      "vestig": 4428,
      "ounds": 4429,
      "fat": 4430,
      "Terus": 4431,
      "Belum": 4432,
      "hist": 4433,
      "bagiku": 4434,
      "enek": 4435,
      "menjelas": 4436,
      "contin": 4437,
      "finish": 4438,
      "sibuk": 4439,
      "whe": 4440,
      "Should": 4441,
      "punyai": 4442,
      "pelaj": 4443,
      "IA": 4444,
      "deep": 4445,
      "arikan": 4446,
      "hluk": 4447,
      "experi": 4448,
      "Angel": 4449,
      "Datang": 4450,
      "daftar": 4451,
      "menyentuh": 4452,
      "potong": 4453,
      "using": 4454,
      "kalah": 4455,
      "nasi": 4456,
      "master": 4457,
      "membantumu": 4458,
      "Remember": 4459,
      "pernikahan": 4460,
      "Mun": 4461,
      "THE": 4462,
      "ense": 4463,
      "ompok": 4464,
      "ges": 4465,
      "agree": 4466,
      "CH": 4467,
      "Ye": 4468,
      "derita": 4469,
      "ampun": 4470,
      "Think": 4471,
      "Maj": 4472,
      "Mama": 4473,
      "kulit": 4474,
      "pack": 4475,
      "24": 4476,
      "photo": 4477,
      "Looks": 4478,
      "tanganmu": 4479,
      "enak": 4480,
      "non": 4481,
      "Kuk": 4482,
      "seni": 4483,
      "juang": 4484,
      "aven": 4485,
      "entu": 4486,
      "wit": 4487,
      "ksi": 4488,
      "Scott": 4489,
      "andy": 4490,
      "slow": 4491,
      "Silahkan": 4492,
      "kaya": 4493,
      "vern": 4494,
      "honest": 4495,
      "Mur": 4496,
      "consi": 4497,
      "position": 4498,
      "gagal": 4499,
      "Sha": 4500,
      "ret": 4501,
      "itely": 4502,
      "looked": 4503,
      "ousand": 4504,
      "terlibat": 4505,
      "alat": 4506,
      "sie": 4507,
      "worse": 4508,
      "tinggalkan": 4509,
      "offer": 4510,
      "kiri": 4511,
      "Actually": 4512,
      "Au": 4513,
      "saudar": 4514,
      "rock": 4515,
      "toko": 4516,
      "sistem": 4517,
      "forever": 4518,
      "Everybody": 4519,
      "rent": 4520,
      "kartu": 4521,
      "reach": 4522,
      "tiv": 4523,
      "escap": 4524,
      "meant": 4525,
      "menyimpan": 4526,
      "Hap": 4527,
      "conne": 4528,
      "guna": 4529,
      "ford": 4530,
      "kemarin": 4531,
      "operasi": 4532,
      "Agent": 4533,
      "hany": 4534,
      "betapa": 4535,
      "erah": 4536,
      "akar": 4537,
      "bast": 4538,
      "nobody": 4539,
      "musik": 4540,
      "mot": 4541,
      "apaan": 4542,
      "Ming": 4543,
      "arrest": 4544,
      "anim": 4545,
      "keputus": 4546,
      "sl": 4547,
      "Menurutmu": 4548,
      "Isn": 4549,
      "worried": 4550,
      "Chuck": 4551,
      "Oliver": 4552,
      "jem": 4553,
      "handle": 4554,
      "kept": 4555,
      "isa": 4556,
      "message": 4557,
      "menyakiti": 4558,
      "enam": 4559,
      "burn": 4560,
      "pose": 4561,
      "lim": 4562,
      "mengeluar": 4563,
      "menonton": 4564,
      "white": 4565,
      "smell": 4566,
      "mengurus": 4567,
      "caught": 4568,
      "ditu": 4569,
      "putih": 4570,
      "information": 4571,
      "mabuk": 4572,
      "laugh": 4573,
      "level": 4574,
      "quiet": 4575,
      "guru": 4576,
      "dimulai": 4577,
      "hian": 4578,
      "agon": 4579,
      "trav": 4580,
      "aged": 4581,
      "mempunyai": 4582,
      "watching": 4583,
      "respect": 4584,
      "terbuka": 4585,
      "arri": 4586,
      "aham": 4587,
      "rain": 4588,
      "wedding": 4589,
      "Back": 4590,
      "Waktu": 4591,
      "UN": 4592,
      "ety": 4593,
      "empatkan": 4594,
      "nan": 4595,
      "Earth": 4596,
      "Ry": 4597,
      "arilah": 4598,
      "pasukan": 4599,
      "rai": 4600,
      "Ayahku": 4601,
      "disebut": 4602,
      "Cho": 4603,
      "itan": 4604,
      "olak": 4605,
      "solutely": 4606,
      "hel": 4607,
      "Hit": 4608,
      "kelihat": 4609,
      "baiki": 4610,
      "Bahwa": 4611,
      "Try": 4612,
      "inding": 4613,
      "cas": 4614,
      "cocok": 4615,
      "viously": 4616,
      "Rachel": 4617,
      "unjung": 4618,
      "plo": 4619,
      "brengsek": 4620,
      "enge": 4621,
      "Selama": 4622,
      "smart": 4623,
      "teach": 4624,
      "Ni": 4625,
      "honor": 4626,
      "bere": 4627,
      "missed": 4628,
      "ston": 4629,
      "ayalah": 4630,
      "cir": 4631,
      "swear": 4632,
      "fing": 4633,
      "fied": 4634,
      "acak": 4635,
      "tertarik": 4636,
      "threat": 4637,
      "magic": 4638,
      "Lex": 4639,
      "London": 4640,
      "Buka": 4641,
      "killing": 4642,
      "belong": 4643,
      "Aw": 4644,
      "Claire": 4645,
      "hide": 4646,
      "anggota": 4647,
      "Ve": 4648,
      "Gun": 4649,
      "anywhere": 4650,
      "Perc": 4651,
      "gift": 4652,
      "heal": 4653,
      "kuda": 4654,
      "bila": 4655,
      "amazing": 4656,
      "mengatakannya": 4657,
      "seat": 4658,
      "dying": 4659,
      "stead": 4660,
      "menolong": 4661,
      "Love": 4662,
      "miliki": 4663,
      "undred": 4664,
      "tired": 4665,
      "Guys": 4666,
      "abil": 4667,
      "Fe": 4668,
      "Ali": 4669,
      "picture": 4670,
      "LE": 4671,
      "menyelesaikan": 4672,
      "kabur": 4673,
      "ills": 4674,
      "expect": 4675,
      "cop": 4676,
      "appro": 4677,
      "ular": 4678,
      "liam": 4679,
      "umb": 4680,
      "Wor": 4681,
      "disi": 4682,
      "Hidup": 4683,
      "catatan": 4684,
      "dude": 4685,
      "sand": 4686,
      "kebenar": 4687,
      "keb": 4688,
      "Bangun": 4689,
      "ded": 4690,
      "investig": 4691,
      "cei": 4692,
      "serangan": 4693,
      "personal": 4694,
      "hei": 4695,
      "offee": 4696,
      "bisakah": 4697,
      "contact": 4698,
      "jahatan": 4699,
      "akutan": 4700,
      "Makan": 4701,
      "priv": 4702,
      "truck": 4703,
      "draw": 4704,
      "memberitahumu": 4705,
      "ply": 4706,
      "sang": 4707,
      "ektif": 4708,
      "perasaan": 4709,
      "Ki": 4710,
      "meter": 4711,
      "hanyalah": 4712,
      "jan": 4713,
      "capkan": 4714,
      "Tetapi": 4715,
      "concer": 4716,
      "Mark": 4717,
      "thousand": 4718,
      "tract": 4719,
      "tempur": 4720,
      "yah": 4721,
      "Tiga": 4722,
      "Tepat": 4723,
      "rich": 4724,
      "elpon": 4725,
      "mile": 4726,
      "promi": 4727,
      "freak": 4728,
      "floor": 4729,
      "bt": 4730,
      "ries": 4731,
      "peace": 4732,
      "single": 4733,
      "beli": 4734,
      "ihak": 4735,
      "sesu": 4736,
      "dou": 4737,
      "Won": 4738,
      "avo": 4739,
      "City": 4740,
      "dd": 4741,
      "Prof": 4742,
      "keberatan": 4743,
      "psy": 4744,
      "kereta": 4745,
      "ggest": 4746,
      "ribu": 4747,
      "accident": 4748,
      "Cha": 4749,
      "chi": 4750,
      "load": 4751,
      "Grand": 4752,
      "Out": 4753,
      "Tinggal": 4754,
      "cup": 4755,
      "kr": 4756,
      "cH00FFFF": 4757,
      "broke": 4758,
      "Duduk": 4759,
      "accept": 4760,
      "terday": 4761,
      "Ly": 4762,
      "elihat": 4763,
      "kencan": 4764,
      "memulai": 4765,
      "High": 4766,
      "Salah": 4767,
      "minal": 4768,
      "jari": 4769,
      "fur": 4770,
      "gak": 4771,
      "teng": 4772,
      "kasi": 4773,
      "Bung": 4774,
      "Ind": 4775,
      "ext": 4776,
      "Bon": 4777,
      "macam": 4778,
      "menutup": 4779,
      "Kill": 4780,
      "anjutnya": 4781,
      "Kuh": 4782,
      "darimu": 4783,
      "keamanan": 4784,
      "kotak": 4785,
      "situation": 4786,
      "mate": 4787,
      "tions": 4788,
      "sounds": 4789,
      "menjawab": 4790,
      "plane": 4791,
      "Time": 4792,
      "wake": 4793,
      "Sang": 4794,
      "hancur": 4795,
      "fit": 4796,
      "memint": 4797,
      "imp": 4798,
      "kol": 4799,
      "gelap": 4800,
      "bly": 4801,
      "Brother": 4802,
      "elakaan": 4803,
      "kecelakaan": 4804,
      "khian": 4805,
      "ends": 4806,
      "kelompok": 4807,
      "pantas": 4808,
      "ompat": 4809,
      "offic": 4810,
      "menurut": 4811,
      "Fl": 4812,
      "acy": 4813,
      "yer": 4814,
      "mengem": 4815,
      "melupakan": 4816,
      "Pertama": 4817,
      "tumbuh": 4818,
      "steal": 4819,
      "membunuhku": 4820,
      "pohon": 4821,
      "elly": 4822,
      "Carol": 4823,
      "ult": 4824,
      "Er": 4825,
      "rie": 4826,
      "Lagi": 4827,
      "jantung": 4828,
      "iya": 4829,
      "smo": 4830,
      "SE": 4831,
      "meja": 4832,
      "Sit": 4833,
      "Val": 4834,
      "nik": 4835,
      "voice": 4836,
      "Queen": 4837,
      "arung": 4838,
      "cation": 4839,
      "rant": 4840,
      "ME": 4841,
      "temanmu": 4842,
      "fighting": 4843,
      "Kam": 4844,
      "bangkan": 4845,
      "crap": 4846,
      "About": 4847,
      "Dude": 4848,
      "pula": 4849,
      "resi": 4850,
      "ically": 4851,
      "Gar": 4852,
      "Whoo": 4853,
      "Barry": 4854,
      "abo": 4855,
      "sikap": 4856,
      "sport": 4857,
      "write": 4858,
      "temuan": 4859,
      "DA": 4860,
      "ridge": 4861,
      "anyi": 4862,
      "Malam": 4863,
      "busy": 4864,
      "cure": 4865,
      "bull": 4866,
      "ffff": 4867,
      "Im": 4868,
      "rencan": 4869,
      "Sau": 4870,
      "tention": 4871,
      "birthday": 4872,
      "Billy": 4873,
      "tujuan": 4874,
      "Dem": 4875,
      "TO": 4876,
      "acur": 4877,
      "vernment": 4878,
      "force": 4879,
      "tely": 4880,
      "illy": 4881,
      "dig": 4882,
      "blis": 4883,
      "India": 4884,
      "reco": 4885,
      "cated": 4886,
      "hatian": 4887,
      "bangga": 4888,
      "Super": 4889,
      "fortun": 4890,
      "More": 4891,
      "untungan": 4892,
      "menyadari": 4893,
      "Didn": 4894,
      "Paman": 4895,
      "ungkinan": 4896,
      "secon": 4897,
      "menghad": 4898,
      "Maka": 4899,
      "Has": 4900,
      "hundred": 4901,
      "Alright": 4902,
      "soldi": 4903,
      "memasti": 4904,
      "kumpul": 4905,
      "tech": 4906,
      "William": 4907,
      "polit": 4908,
      "dered": 4909,
      "ano": 4910,
      "shi": 4911,
      "suk": 4912,
      "artemen": 4913,
      "remain": 4914,
      "thinks": 4915,
      "Sp": 4916,
      "istr": 4917,
      "Ji": 4918,
      "ides": 4919,
      "shop": 4920,
      "ico": 4921,
      "hai": 4922,
      "seven": 4923,
      "masing": 4924,
      "angi": 4925,
      "rather": 4926,
      "khusus": 4927,
      "saatnya": 4928,
      "mengaku": 4929,
      "panggilan": 4930,
      "Turn": 4931,
      "killer": 4932,
      "host": 4933,
      "Elena": 4934,
      "Dep": 4935,
      "ls": 4936,
      "lanjut": 4937,
      "burung": 4938,
      "500": 4939,
      "yum": 4940,
      "tir": 4941,
      "Det": 4942,
      "minuman": 4943,
      "enjoy": 4944,
      "Gl": 4945,
      "kl": 4946,
      "ketakutan": 4947,
      "pukul": 4948,
      "gig": 4949,
      "gni": 4950,
      "oc": 4951,
      "jadian": 4952,
      "cahaya": 4953,
      "kupikir": 4954,
      "mach": 4955,
      "Once": 4956,
      "Matt": 4957,
      "Und": 4958,
      "NA": 4959,
      "Bad": 4960,
      "ountain": 4961,
      "cil": 4962,
      "shar": 4963,
      "Namun": 4964,
      "memberimu": 4965,
      "ajur": 4966,
      "history": 4967,
      "space": 4968,
      "gentlemen": 4969,
      "Apapun": 4970,
      "ties": 4971,
      "elek": 4972,
      "invol": 4973,
      "memegang": 4974,
      "carry": 4975,
      "Anna": 4976,
      "ordin": 4977,
      "Wanita": 4978,
      "Kukira": 4979,
      "matahari": 4980,
      "layak": 4981,
      "neraka": 4982,
      "Pal": 4983,
      "deli": 4984,
      "swee": 4985,
      "ased": 4986,
      "marry": 4987,
      "ditemukan": 4988,
      "Ted": 4989,
      "membuang": 4990,
      "kumohon": 4991,
      "file": 4992,
      "across": 4993,
      "ajurit": 4994,
      "Dapatkan": 4995,
      "encana": 4996,
      "loe": 4997,
      "bernama": 4998,
      "bersumpah": 4999,
      "baju": 5000,
      "Rumah": 5001,
      "evidence": 5002,
      "jamin": 5003,
      "bow": 5004,
      "pahlawan": 5005,
      "Park": 5006,
      "Sara": 5007,
      "ingkir": 5008,
      "ines": 5009,
      "ots": 5010,
      "olf": 5011,
      "hutan": 5012,
      "Guru": 5013,
      "Ms": 5014,
      "fa": 5015,
      "kesepak": 5016,
      "sebaiknya": 5017,
      "menghubungi": 5018,
      "maj": 5019,
      "partner": 5020,
      "suit": 5021,
      "kejahatan": 5022,
      "window": 5023,
      "kalinya": 5024,
      "Jon": 5025,
      "gold": 5026,
      "middle": 5027,
      "kulihat": 5028,
      "Paris": 5029,
      "vill": 5030,
      "berguna": 5031,
      "ending": 5032,
      "fac": 5033,
      "early": 5034,
      "Check": 5035,
      "Gadis": 5036,
      "card": 5037,
      "wise": 5038,
      "tentara": 5039,
      "squ": 5040,
      "menjelaskan": 5041,
      "seconds": 5042,
      "hantu": 5043,
      "Den": 5044,
      "kno": 5045,
      "bosan": 5046,
      "standing": 5047,
      "sometimes": 5048,
      "ager": 5049,
      "color": 5050,
      "kabarmu": 5051,
      "prac": 5052,
      "calm": 5053,
      "hen": 5054,
      "sedia": 5055,
      "sam": 5056,
      "buran": 5057,
      "sampah": 5058,
      "sejarah": 5059,
      "Sho": 5060,
      "moved": 5061,
      "kick": 5062,
      "bunyikan": 5063,
      "ost": 5064,
      "teriak": 5065,
      "General": 5066,
      "Adam": 5067,
      "Mis": 5068,
      "Show": 5069,
      "namamu": 5070,
      "simple": 5071,
      "Bang": 5072,
      "rad": 5073,
      "hana": 5074,
      "hidupmu": 5075,
      "merupakan": 5076,
      "mendengarnya": 5077,
      "bumi": 5078,
      "melarikan": 5079,
      "imak": 5080,
      "Str": 5081,
      "sof": 5082,
      "biasanya": 5083,
      "kep": 5084,
      "Kecuali": 5085,
      "situasi": 5086,
      "completely": 5087,
      "paid": 5088,
      "Bobby": 5089,
      "hood": 5090,
      "sn": 5091,
      "Sedi": 5092,
      "batas": 5093,
      "Fu": 5094,
      "saksi": 5095,
      "Kuharap": 5096,
      "jend": 5097,
      "esome": 5098,
      "victim": 5099,
      "hum": 5100,
      "earth": 5101,
      "Papa": 5102,
      "tahanan": 5103,
      "Tommy": 5104,
      "Yep": 5105,
      "ingkat": 5106,
      "bri": 5107,
      "uki": 5108,
      "thes": 5109,
      "abat": 5110,
      "Happy": 5111,
      "Ra": 5112,
      "pray": 5113,
      "ahi": 5114,
      "ingatan": 5115,
      "White": 5116,
      "bersamamu": 5117,
      "ances": 5118,
      "jiwa": 5119,
      "berasal": 5120,
      "memastikan": 5121,
      "Dokter": 5122,
      "55": 5123,
      "moon": 5124,
      "makhluk": 5125,
      "identi": 5126,
      "indakan": 5127,
      "====": 5128,
      "daging": 5129,
      "Hel": 5130,
      "jebak": 5131,
      "usak": 5132,
      "weak": 5133,
      "ended": 5134,
      "virus": 5135,
      "grap": 5136,
      "juh": 5137,
      "stor": 5138,
      "station": 5139,
      "Lit": 5140,
      "data": 5141,
      "stopped": 5142,
      "caranya": 5143,
      "rik": 5144,
      "arat": 5145,
      "cher": 5146,
      "tampaknya": 5147,
      "Star": 5148,
      "cab": 5149,
      "Sed": 5150,
      "witch": 5151,
      "atus": 5152,
      "government": 5153,
      "cops": 5154,
      "warna": 5155,
      "kerjakan": 5156,
      "sepertimu": 5157,
      "MA": 5158,
      "menempatkan": 5159,
      "nut": 5160,
      "visit": 5161,
      "mengin": 5162,
      "ants": 5163,
      "anjang": 5164,
      "miles": 5165,
      "coffee": 5166,
      "charge": 5167,
      "eri": 5168,
      "Boy": 5169,
      "decided": 5170,
      "Since": 5171,
      "command": 5172,
      "TER": 5173,
      "langkah": 5174,
      "Ka": 5175,
      "gomong": 5176,
      "pintunya": 5177,
      "Too": 5178,
      "trad": 5179,
      "Menger": 5180,
      "suc": 5181,
      "kamera": 5182,
      "Pl": 5183,
      "boo": 5184,
      "kopi": 5185,
      "pendapat": 5186,
      "cook": 5187,
      "appreci": 5188,
      "serah": 5189,
      "trap": 5190,
      "mundur": 5191,
      "Nik": 5192,
      "Akhir": 5193,
      "ptakan": 5194,
      "jumlah": 5195,
      "ponsel": 5196,
      "Dire": 5197,
      "hurry": 5198,
      "Presiden": 5199,
      "terdengar": 5200,
      "bentuk": 5201,
      "bersamaku": 5202,
      "kena": 5203,
      "Bring": 5204,
      "exc": 5205,
      "girlfriend": 5206,
      "sac": 5207,
      "acau": 5208,
      "lubang": 5209,
      "definitely": 5210,
      "oris": 5211,
      "awak": 5212,
      "Kr": 5213,
      "pers": 5214,
      "lied": 5215,
      "share": 5216,
      "broken": 5217,
      "Nyonya": 5218,
      "ently": 5219,
      "American": 5220,
      "Way": 5221,
      "sor": 5222,
      "usu": 5223,
      "Gri": 5224,
      "poor": 5225,
      "prove": 5226,
      "NO": 5227,
      "tamu": 5228,
      "alkan": 5229,
      "Carl": 5230,
      "Ca": 5231,
      "imakasih": 5232,
      "grab": 5233,
      "oma": 5234,
      "kiss": 5235,
      "ANG": 5236,
      "Seharusnya": 5237,
      "duga": 5238,
      "milikku": 5239,
      "Steve": 5240,
      "mp": 5241,
      "Uncle": 5242,
      "bath": 5243,
      "yesterday": 5244,
      "bunya": 5245,
      "club": 5246,
      "weapon": 5247,
      "Lupakan": 5248,
      "Lang": 5249,
      "atikan": 5250,
      "athan": 5251,
      "mencium": 5252,
      "Sedikit": 5253,
      "digunakan": 5254,
      "Anything": 5255,
      "bear": 5256,
      "ander": 5257,
      "dewas": 5258,
      "Sul": 5259,
      "ceritakan": 5260,
      "mencer": 5261,
      "dise": 5262,
      "aster": 5263,
      "tewas": 5264,
      "nyaman": 5265,
      "proud": 5266,
      "ota": 5267,
      "Tony": 5268,
      "hasn": 5269,
      "ghost": 5270,
      "travel": 5271,
      "crime": 5272,
      "trip": 5273,
      "ount": 5274,
      "mention": 5275,
      "bermaksud": 5276,
      "ski": 5277,
      "Hor": 5278,
      "ongrat": 5279,
      "evil": 5280,
      "dikatakan": 5281,
      "bey": 5282,
      "kebe": 5283,
      "sehat": 5284,
      "endam": 5285,
      "bertanggung": 5286,
      "totally": 5287,
      "gung": 5288,
      "Setidaknya": 5289,
      "cute": 5290,
      "Tahan": 5291,
      "Dapatkah": 5292,
      "Jake": 5293,
      "mark": 5294,
      "Baby": 5295,
      "apor": 5296,
      "IC": 5297,
      "lt": 5298,
      "Ron": 5299,
      "La": 5300,
      "truk": 5301,
      "talked": 5302,
      "Swe": 5303,
      "stru": 5304,
      "jung": 5305,
      "memotong": 5306,
      "lapar": 5307,
      "setidaknya": 5308,
      "Johnny": 5309,
      "forward": 5310,
      "consider": 5311,
      "reg": 5312,
      "Cam": 5313,
      "aff": 5314,
      "meledak": 5315,
      "ging": 5316,
      "paper": 5317,
      "kemampu": 5318,
      "clothes": 5319,
      "strange": 5320,
      "bia": 5321,
      "ayakan": 5322,
      "sepatu": 5323,
      "erhana": 5324,
      "bastard": 5325,
      "terrible": 5326,
      "liar": 5327,
      "tures": 5328,
      "Ayahmu": 5329,
      "Fre": 5330,
      "Pan": 5331,
      "RA": 5332,
      "fak": 5333,
      "anta": 5334,
      "semangat": 5335,
      "rac": 5336,
      "army": 5337,
      "Gor": 5338,
      "Bat": 5339,
      "mengalahkan": 5340,
      "asaran": 5341,
      "Ham": 5342,
      "ahami": 5343,
      "spot": 5344,
      "Christmas": 5345,
      "Seri": 5346,
      "Roger": 5347,
      "daerah": 5348,
      "Beritahu": 5349,
      "Fred": 5350,
      "jus": 5351,
      "buktikan": 5352,
      "sky": 5353,
      "illi": 5354,
      "istrik": 5355,
      "menolak": 5356,
      "bell": 5357,
      "nal": 5358,
      "cross": 5359,
      "menemui": 5360,
      "pihak": 5361,
      "kesepakatan": 5362,
      "post": 5363,
      "corre": 5364,
      "Hell": 5365,
      "Sejak": 5366,
      "Bay": 5367,
      "Jin": 5368,
      "Kemana": 5369,
      "relation": 5370,
      "loves": 5371,
      "President": 5372,
      "Chloe": 5373,
      "\"!": 5374,
      "pertemuan": 5375,
      "memberitahuku": 5376,
      "dewasa": 5377,
      ",...": 5378,
      "diluar": 5379,
      "lon": 5380,
      "berhubungan": 5381,
      "keputusan": 5382,
      "dist": 5383,
      "uji": 5384,
      "anjutkan": 5385,
      "Persetan": 5386,
      "guard": 5387,
      "membantuku": 5388,
      "bahan": 5389,
      "cek": 5390,
      "cast": 5391,
      "yataan": 5392,
      "pantat": 5393,
      "Van": 5394,
      "imagine": 5395,
      "owe": 5396,
      "Perhaps": 5397,
      "zo": 5398,
      "pener": 5399,
      "Jason": 5400,
      "fant": 5401,
      "wearing": 5402,
      "kejadian": 5403,
      "Jam": 5404,
      "rusak": 5405,
      "Tah": 5406,
      "upon": 5407,
      "Little": 5408,
      "tulis": 5409,
      "Young": 5410,
      "bullet": 5411,
      "incess": 5412,
      "Cut": 5413,
      "berangkat": 5414,
      "mengawas": 5415,
      "Richard": 5416,
      "cru": 5417,
      "sight": 5418,
      "Nama": 5419,
      "eight": 5420,
      "Hon": 5421,
      "lelah": 5422,
      "menelpon": 5423,
      "dil": 5424,
      "Jend": 5425,
      "tough": 5426,
      "inno": 5427,
      "record": 5428,
      "Still": 5429,
      "Emma": 5430,
      "Last": 5431,
      "public": 5432,
      "hungry": 5433,
      "MAN": 5434,
      "spend": 5435,
      "darinya": 5436,
      "Honey": 5437,
      "apologi": 5438,
      "tersisa": 5439,
      "pengaruh": 5440,
      "memberiku": 5441,
      "battle": 5442,
      "Bru": 5443,
      "cif": 5444,
      "America": 5445,
      "menyedi": 5446,
      "Amanda": 5447,
      "avy": 5448,
      "Kol": 5449,
      "sitting": 5450,
      "35": 5451,
      "ganti": 5452,
      "path": 5453,
      "membenci": 5454,
      "Fri": 5455,
      "Pang": 5456,
      "ology": 5457,
      "ress": 5458,
      "famili": 5459,
      "petugas": 5460,
      "comfor": 5461,
      "Chief": 5462,
      "**": 5463,
      "verse": 5464,
      "alright": 5465,
      "iran": 5466,
      "ashing": 5467,
      "ctions": 5468,
      "unit": 5469,
      "GH": 5470,
      "Somebody": 5471,
      "21": 5472,
      "dare": 5473,
      "sha": 5474,
      "kuli": 5475,
      "finished": 5476,
      "peluru": 5477,
      "arr": 5478,
      "lum": 5479,
      "bunga": 5480,
      "sedih": 5481,
      "within": 5482,
      "mencu": 5483,
      "jal": 5484,
      "begini": 5485,
      "Yu": 5486,
      "apkan": 5487,
      "feels": 5488,
      "Tanpa": 5489,
      "selanjutnya": 5490,
      "gug": 5491,
      "blue": 5492,
      "fucker": 5493,
      "Na": 5494,
      "Namaku": 5495,
      "Sebagai": 5496,
      "hewan": 5497,
      "promised": 5498,
      "menghar": 5499,
      "napas": 5500,
      "vision": 5501,
      "riage": 5502,
      "utk": 5503,
      "kebenaran": 5504,
      "Kan": 5505,
      "explo": 5506,
      ".../": 5507,
      "Ash": 5508,
      "tual": 5509,
      "commun": 5510,
      "tian": 5511,
      "ette": 5512,
      "tindakan": 5513,
      "rules": 5514,
      "inilah": 5515,
      "apai": 5516,
      "RO": 5517,
      "tamp": 5518,
      "ongratul": 5519,
      "realize": 5520,
      "emer": 5521,
      "Maksudmu": 5522,
      "joke": 5523,
      "menyembunyikan": 5524,
      "gay": 5525,
      "appoint": 5526,
      "group": 5527,
      "alih": 5528,
      "didalam": 5529,
      "quar": 5530,
      "membah": 5531,
      "boyfriend": 5532,
      "ayahnya": 5533,
      "penge": 5534,
      "diffic": 5535,
      "crew": 5536,
      "Pete": 5537,
      "milikmu": 5538,
      "tertawa": 5539,
      "pelacur": 5540,
      "raja": 5541,
      "indak": 5542,
      "Fire": 5543,
      "Up": 5544,
      "angnya": 5545,
      "keingin": 5546,
      "bersenang": 5547,
      "uangnya": 5548,
      "ancy": 5549,
      "anakmu": 5550,
      "kes": 5551,
      "ria": 5552,
      "cky": 5553,
      "geri": 5554,
      "Holy": 5555,
      "disappear": 5556,
      "silakan": 5557,
      "cting": 5558,
      "Angkat": 5559,
      "spo": 5560,
      "...!": 5561,
      "dikan": 5562,
      "terbesar": 5563,
      "roman": 5564,
      "thur": 5565,
      "membawamu": 5566,
      "sip": 5567,
      "adil": 5568,
      "redit": 5569,
      "palsu": 5570,
      "dibunuh": 5571,
      "neck": 5572,
      "aim": 5573,
      "terkenal": 5574,
      "harapan": 5575,
      "masalahnya": 5576,
      "Kate": 5577,
      "berharga": 5578,
      "movie": 5579,
      "ampaknya": 5580,
      "locked": 5581,
      "enemy": 5582,
      "evening": 5583,
      "olog": 5584,
      "organ": 5585,
      "stone": 5586,
      "Bell": 5587,
      "hun": 5588,
      "dalamnya": 5589,
      "hubungi": 5590,
      "Jan": 5591,
      "dinding": 5592,
      "Selalu": 5593,
      "membutuh": 5594,
      "calls": 5595,
      "Tutup": 5596,
      "Next": 5597,
      "ktur": 5598,
      "covered": 5599,
      "menari": 5600,
      "Anyway": 5601,
      "itz": 5602,
      "feed": 5603,
      "relationship": 5604,
      "menun": 5605,
      "Robert": 5606,
      "AH": 5607,
      "spent": 5608,
      "Bumi": 5609,
      "Ibuku": 5610,
      "menyakit": 5611,
      "sederhana": 5612,
      "intel": 5613,
      "Before": 5614,
      "Membuat": 5615,
      "incin": 5616,
      "instead": 5617,
      "tight": 5618,
      "teacher": 5619,
      "Sometimes": 5620,
      "tood": 5621,
      "sesuai": 5622,
      "stuck": 5623,
      "kutu": 5624,
      "nur": 5625,
      "cinya": 5626,
      "Mulai": 5627,
      "sentuh": 5628,
      "tembakan": 5629,
      "binatang": 5630,
      "Long": 5631,
      "eks": 5632,
      "holding": 5633,
      "incre": 5634,
      "uly": 5635,
      "kemungkinan": 5636,
      "bone": 5637,
      "walking": 5638,
      "hall": 5639,
      "rele": 5640,
      "arms": 5641,
      "fed": 5642,
      "Arthur": 5643,
      "Putri": 5644,
      "neigh": 5645,
      "kotor": 5646,
      "viol": 5647,
      "periksa": 5648,
      "urch": 5649,
      "gala": 5650,
      "ious": 5651,
      "komputer": 5652,
      "recei": 5653,
      "angry": 5654,
      "quit": 5655,
      "hubungannya": 5656,
      "bagimu": 5657,
      "secepat": 5658,
      "atif": 5659,
      "mail": 5660,
      "menakut": 5661,
      "laporan": 5662,
      "Hang": 5663,
      "Kon": 5664,
      "cob": 5665,
      "ined": 5666,
      "sihkan": 5667,
      "araan": 5668,
      "jour": 5669,
      "merusak": 5670,
      "Want": 5671,
      "memahami": 5672,
      "Boss": 5673,
      "penjaga": 5674,
      "sibil": 5675,
      "nu": 5676,
      "Bantu": 5677,
      "berdo": 5678,
      "risk": 5679,
      "asli": 5680,
      "terjebak": 5681,
      "produ": 5682,
      "gger": 5683,
      "via": 5684,
      "penyihir": 5685,
      "itive": 5686,
      "membel": 5687,
      "menjauh": 5688,
      "equ": 5689,
      "bkan": 5690,
      "taw": 5691,
      "mental": 5692,
      "izin": 5693,
      "assu": 5694,
      "mengira": 5695,
      "Today": 5696,
      "quickly": 5697,
      "untuknya": 5698,
      "bercinta": 5699,
      "Stand": 5700,
      "tip": 5701,
      "Five": 5702,
      "Bic": 5703,
      "putar": 5704,
      "ubahan": 5705,
      "speed": 5706,
      "arak": 5707,
      "essor": 5708,
      "kursi": 5709,
      "titik": 5710,
      "ajai": 5711,
      "detail": 5712,
      "serv": 5713,
      "gedung": 5714,
      "final": 5715,
      "urat": 5716,
      "jawaban": 5717,
      "kepadaku": 5718,
      "attention": 5719,
      "garis": 5720,
      "hoo": 5721,
      "lier": 5722,
      "mengatur": 5723,
      "none": 5724,
      "Stefan": 5725,
      "fail": 5726,
      "hadir": 5727,
      "during": 5728,
      "menaw": 5729,
      "match": 5730,
      "SA": 5731,
      "ua": 5732,
      "code": 5733,
      "Inilah": 5734,
      "tab": 5735,
      "sikan": 5736,
      "Shi": 5737,
      "aus": 5738,
      "ville": 5739,
      "okok": 5740,
      "ante": 5741,
      "Martin": 5742,
      "dukung": 5743,
      "andingan": 5744,
      "berbuat": 5745,
      "mengacau": 5746,
      "lemah": 5747,
      "bomb": 5748,
      "chic": 5749,
      "mencapai": 5750,
      "Hand": 5751,
      "bid": 5752,
      "Mundur": 5753,
      "perbuat": 5754,
      "seks": 5755,
      "Es": 5756,
      "issu": 5757,
      "Four": 5758,
      "fuckin": 5759,
      "ilet": 5760,
      "selain": 5761,
      "pow": 5762,
      "vampi": 5763,
      "pop": 5764,
      "glish": 5765,
      "bertindak": 5766,
      "Wo": 5767,
      "court": 5768,
      "sudden": 5769,
      "menahan": 5770,
      "selesaikan": 5771,
      "machine": 5772,
      "bok": 5773,
      "dreams": 5774,
      "jelaskan": 5775,
      "Kemarilah": 5776,
      "Turun": 5777,
      "ying": 5778,
      "sejauh": 5779,
      "cking": 5780,
      "pelan": 5781,
      "telpon": 5782,
      "agum": 5783,
      "senyum": 5784,
      "commit": 5785,
      "English": 5786,
      "kay": 5787,
      "Masalah": 5788,
      "urun": 5789,
      "putr": 5790,
      "inda": 5791,
      "dendam": 5792,
      "weapons": 5793,
      "appreciate": 5794,
      "Forget": 5795,
      "komun": 5796,
      "Mah": 5797,
      "prajurit": 5798,
      "Kore": 5799,
      "zen": 5800,
      "Pernah": 5801,
      "Terlalu": 5802,
      "rev": 5803,
      "Kepala": 5804,
      "perlukan": 5805,
      "Meskipun": 5806,
      "bac": 5807,
      "immedi": 5808,
      "tingkat": 5809,
      "drunk": 5810,
      "ption": 5811,
      "arian": 5812,
      "asshole": 5813,
      "yat": 5814,
      "pergilah": 5815,
      "lived": 5816,
      "saf": 5817,
      "suspect": 5818,
      "menangkan": 5819,
      "Woo": 5820,
      "bertahun": 5821,
      "Percayalah": 5822,
      "maafkan": 5823,
      "orders": 5824,
      "gol": 5825,
      "wis": 5826,
      "ics": 5827,
      "menak": 5828,
      "Baj": 5829,
      "uro": 5830,
      "mengambilnya": 5831,
      "senjat": 5832,
      "menikmati": 5833,
      "atural": 5834,
      "rob": 5835,
      "Vir": 5836,
      "Gil": 5837,
      "ipu": 5838,
      "org": 5839,
      "andu": 5840,
      "pha": 5841,
      "Hah": 5842,
      "pengacara": 5843,
      "remind": 5844,
      "Kakak": 5845,
      "menderita": 5846,
      "perhatian": 5847,
      "atis": 5848,
      "penjahat": 5849,
      "asil": 5850,
      "cially": 5851,
      "Gir": 5852,
      "langit": 5853,
      "Kes": 5854,
      "dge": 5855,
      "likes": 5856,
      "menjalankan": 5857,
      "tung": 5858,
      "Kevin": 5859,
      "cak": 5860,
      "lepaskan": 5861,
      "camera": 5862,
      "muka": 5863,
      "gigi": 5864,
      "sake": 5865,
      "rekam": 5866,
      "problems": 5867,
      "inggu": 5868,
      "tree": 5869,
      "bersembunyi": 5870,
      "yakit": 5871,
      "Ugh": 5872,
      "sehari": 5873,
      "berkel": 5874,
      "menganggap": 5875,
      "starting": 5876,
      "scene": 5877,
      "ongratulations": 5878,
      "petunjuk": 5879,
      "Zo": 5880,
      "Damon": 5881,
      "skin": 5882,
      "ladies": 5883,
      "Mengh": 5884,
      "mengeluarkan": 5885,
      "kendali": 5886,
      "model": 5887,
      "kerj": 5888,
      "CIA": 5889,
      "Tentang": 5890,
      "college": 5891,
      "Mengerti": 5892,
      "nafas": 5893,
      "sihir": 5894,
      "guns": 5895,
      "menghadapi": 5896,
      "Ready": 5897,
      "anaknya": 5898,
      "hiding": 5899,
      "Sheriff": 5900,
      "pulkan": 5901,
      "kepadamu": 5902,
      "impossible": 5903,
      "named": 5904,
      "Stu": 5905,
      "batan": 5906,
      "type": 5907,
      "menceritakan": 5908,
      "bought": 5909,
      "melewat": 5910,
      "yol": 5911,
      "ooper": 5912,
      "gantung": 5913,
      "umum": 5914,
      "akkan": 5915,
      "Eddie": 5916,
      "arannya": 5917,
      "aktif": 5918,
      "ora": 5919,
      "cha": 5920,
      "Brian": 5921,
      "pemerintah": 5922,
      "pasi": 5923,
      "jubkan": 5924,
      "seng": 5925,
      "oni": 5926,
      "pemimpin": 5927,
      "berjuang": 5928,
      "cost": 5929,
      "Stan": 5930,
      "nar": 5931,
      "tulang": 5932,
      "berlari": 5933,
      "escape": 5934,
      "Find": 5935,
      "quest": 5936,
      "acting": 5937,
      "tee": 5938,
      "lia": 5939,
      "Thomas": 5940,
      "rumahku": 5941,
      "creat": 5942,
      "atuhkan": 5943,
      "difficult": 5944,
      "uten": 5945,
      "aly": 5946,
      "itary": 5947,
      "berterima": 5948,
      "siapkan": 5949,
      "kucing": 5950,
      "bek": 5951,
      "interested": 5952,
      "Kawan": 5953,
      "bother": 5954,
      "agent": 5955,
      "guest": 5956,
      "doubt": 5957,
      "baca": 5958,
      "Molly": 5959,
      "menghenti": 5960,
      "elebr": 5961,
      "latihan": 5962,
      "konyol": 5963,
      "fresh": 5964,
      "menangani": 5965,
      "adv": 5966,
      "Dun": 5967,
      "Tembak": 5968,
      "Allah": 5969,
      "excuse": 5970,
      "Dunia": 5971,
      "laus": 5972,
      "Sum": 5973,
      "aa": 5974,
      "Gray": 5975,
      "jau": 5976,
      "AP": 5977,
      "ese": 5978,
      "choose": 5979,
      "serve": 5980,
      "dibuat": 5981,
      "ilmu": 5982,
      "andon": 5983,
      "support": 5984,
      "ola": 5985,
      "goddamn": 5986,
      "wah": 5987,
      "lokasi": 5988,
      "scream": 5989,
      "itor": 5990,
      "uty": 5991,
      "ED": 5992,
      "lyn": 5993,
      "popul": 5994,
      "kotoran": 5995,
      "Doctor": 5996,
      "DNA": 5997,
      "istan": 5998,
      "service": 5999,
      "Hot": 6000,
      "Rose": 6001,
      "daya": 6002,
      "angk": 6003,
      "suppose": 6004,
      "ras": 6005,
      "arko": 6006,
      "Dave": 6007,
      "jump": 6008,
      "flow": 6009,
      "noon": 6010,
      "semalam": 6011,
      "Reg": 6012,
      "jendela": 6013,
      "horse": 6014,
      "Uni": 6015,
      "Beth": 6016,
      "lee": 6017,
      "surprise": 6018,
      "Tar": 6019,
      "jail": 6020,
      "extra": 6021,
      "Simon": 6022,
      "sobat": 6023,
      "store": 6024,
      "Sedang": 6025,
      "Lady": 6026,
      "pasang": 6027,
      "assi": 6028,
      "memory": 6029,
      "separ": 6030,
      "Boo": 6031,
      "bum": 6032,
      "sional": 6033,
      "kisah": 6034,
      "ester": 6035,
      "forgive": 6036,
      "listening": 6037,
      "toilet": 6038,
      "necess": 6039,
      "difference": 6040,
      "involved": 6041,
      "Yesus": 6042,
      "iny": 6043,
      "sabar": 6044,
      "Kid": 6045,
      "eran": 6046,
      "passed": 6047,
      "ague": 6048,
      "chen": 6049,
      "rap": 6050,
      "decision": 6051,
      "Bir": 6052,
      "Met": 6053,
      "figured": 6054,
      "Lari": 6055,
      "anggar": 6056,
      "memakan": 6057,
      "Rel": 6058,
      "theart": 6059,
      "tinya": 6060,
      "pedang": 6061,
      "keeping": 6062,
      "terbunuh": 6063,
      "bertarung": 6064,
      "cH5": 6065,
      "Awas": 6066,
      "lunch": 6067,
      "nilai": 6068,
      "Lima": 6069,
      "chan": 6070,
      "berteriak": 6071,
      "Dou": 6072,
      "biar": 6073,
      ").": 6074,
      "babkan": 6075,
      "Gab": 6076,
      "flight": 6077,
      "lir": 6078,
      "blame": 6079,
      "orban": 6080,
      "diter": 6081,
      "ieve": 6082,
      "WH": 6083,
      "valu": 6084,
      "Rep": 6085,
      "Tru": 6086,
      "helping": 6087,
      "breath": 6088,
      "willing": 6089,
      "stole": 6090,
      "West": 6091,
      "ereja": 6092,
      "bigger": 6093,
      "esty": 6094,
      "legal": 6095,
      "built": 6096,
      "bong": 6097,
      "pasangan": 6098,
      "pengadilan": 6099,
      "ism": 6100,
      "Six": 6101,
      "push": 6102,
      "favorite": 6103,
      "hidupnya": 6104,
      "perl": 6105,
      "trak": 6106,
      "atkan": 6107,
      "worst": 6108,
      "gency": 6109,
      "survive": 6110,
      "innocent": 6111,
      "memberinya": 6112,
      "keys": 6113,
      "leader": 6114,
      "Pet": 6115,
      "neg": 6116,
      "lahan": 6117,
      "Ibumu": 6118,
      "istriku": 6119,
      "Panggil": 6120,
      "rendah": 6121,
      "relax": 6122,
      "thin": 6123,
      "Lucy": 6124,
      "DI": 6125,
      "Wah": 6126,
      "prepar": 6127,
      "io": 6128,
      "Cat": 6129,
      "bentar": 6130,
      "vous": 6131,
      "alien": 6132,
      "Lie": 6133,
      "North": 6134,
      "terbakar": 6135,
      "ica": 6136,
      "psi": 6137,
      "Sebaiknya": 6138,
      "Stre": 6139,
      "nia": 6140,
      "Trust": 6141,
      "Akhirnya": 6142,
      "Dete": 6143,
      "blind": 6144,
      "Eng": 6145,
      "mest": 6146,
      "pelajari": 6147,
      "Cuma": 6148,
      "sepak": 6149,
      "pisau": 6150,
      "Ohh": 6151,
      "iko": 6152,
      "learned": 6153,
      "third": 6154,
      "sea": 6155,
      "marriage": 6156,
      "aft": 6157,
      "90": 6158,
      "seberapa": 6159,
      "soci": 6160,
      "computer": 6161,
      "cem": 6162,
      "ners": 6163,
      "pantai": 6164,
      "Kun": 6165,
      "ution": 6166,
      "kue": 6167,
      "dick": 6168,
      "became": 6169,
      "recogni": 6170,
      "gate": 6171,
      "wonderful": 6172,
      "ey": 6173,
      "Rebe": 6174,
      "Cari": 6175,
      "kni": 6176,
      "officer": 6177,
      "Namanya": 6178,
      "kuman": 6179,
      "menanyakan": 6180,
      "faith": 6181,
      "esan": 6182,
      "meskipun": 6183,
      "allowed": 6184,
      "demon": 6185,
      "build": 6186,
      "discus": 6187,
      "Bal": 6188,
      "tha": 6189,
      "CO": 6190,
      "celebr": 6191,
      "hutang": 6192,
      "sword": 6193,
      "uncle": 6194,
      "melapor": 6195,
      "print": 6196,
      "tunjukkan": 6197,
      "Maggie": 6198,
      "ida": 6199,
      "pusat": 6200,
      "apartemen": 6201,
      "everywhere": 6202,
      "fucked": 6203,
      "complete": 6204,
      "Tyler": 6205,
      "neighbor": 6206,
      "bayangkan": 6207,
      "IL": 6208,
      "IM": 6209,
      "race": 6210,
      "yö": 6211,
      "unless": 6212,
      "Jesse": 6213,
      "45": 6214,
      "dana": 6215,
      "banding": 6216,
      "private": 6217,
      "plant": 6218,
      "Yi": 6219,
      "spl": 6220,
      "custo": 6221,
      "admit": 6222,
      "Lor": 6223,
      "fokus": 6224,
      "silahkan": 6225,
      "listrik": 6226,
      "hol": 6227,
      "ros": 6228,
      "kode": 6229,
      "interesting": 6230,
      "eating": 6231,
      "Suatu": 6232,
      "tulan": 6233,
      "memin": 6234,
      "tray": 6235,
      "Isa": 6236,
      "Sebentar": 6237,
      "ginal": 6238,
      "lift": 6239,
      "impres": 6240,
      "pertun": 6241,
      "Bos": 6242,
      "aikat": 6243,
      "ketiga": 6244,
      "..\"": 6245,
      "dk": 6246,
      "nenek": 6247,
      "memperbaiki": 6248,
      "bird": 6249,
      "address": 6250,
      "menyebabkan": 6251,
      "tam": 6252,
      "Natal": 6253,
      "mengembali": 6254,
      "DO": 6255,
      "keluargaku": 6256,
      "lukan": 6257,
      "Jones": 6258,
      "perubahan": 6259,
      "Ryan": 6260,
      "ado": 6261,
      "andan": 6262,
      "ungsi": 6263,
      "matamu": 6264,
      "seminggu": 6265,
      "tujuh": 6266,
      "hormatan": 6267,
      "cream": 6268,
      "encan": 6269,
      "merindu": 6270,
      "Tae": 6271,
      "kend": 6272,
      "selamatkan": 6273,
      "Quick": 6274,
      "nel": 6275,
      "angga": 6276,
      "seriously": 6277,
      "menaruh": 6278,
      "temui": 6279,
      "liked": 6280,
      "streng": 6281,
      "bullshit": 6282,
      "deserve": 6283,
      "Exactly": 6284,
      "pisah": 6285,
      "powerful": 6286,
      "ours": 6287,
      "Bruce": 6288,
      "Gold": 6289,
      "motor": 6290,
      "gelapan": 6291,
      "Cob": 6292,
      "Tampaknya": 6293,
      "tanganku": 6294,
      "militer": 6295,
      "angin": 6296,
      "Bunuh": 6297,
      "ery": 6298,
      "bersiap": 6299,
      "300": 6300,
      "fill": 6301,
      "guil": 6302,
      "ancam": 6303,
      "letter": 6304,
      "Menurutku": 6305,
      "Day": 6306,
      "astic": 6307,
      "asses": 6308,
      "conv": 6309,
      "driving": 6310,
      "Fucking": 6311,
      "membersihkan": 6312,
      "ticket": 6313,
      "mic": 6314,
      "tail": 6315,
      "mountain": 6316,
      "cca": 6317,
      "upset": 6318,
      "ray": 6319,
      "beginning": 6320,
      "Detektif": 6321,
      "kelihatan": 6322,
      "biru": 6323,
      "double": 6324,
      "ucon": 6325,
      "pertandingan": 6326,
      "pung": 6327,
      "abad": 6328,
      "hujan": 6329,
      "Afri": 6330,
      "dap": 6331,
      "Disini": 6332,
      "lampu": 6333,
      "rasi": 6334,
      "memimpin": 6335,
      "Tinggalkan": 6336,
      "bridge": 6337,
      "exist": 6338,
      "Mommy": 6339,
      "ute": 6340,
      "ourselves": 6341,
      "Green": 6342,
      "tag": 6343,
      "menyayang": 6344,
      "Street": 6345,
      "menatap": 6346,
      "aking": 6347,
      "shir": 6348,
      "emudi": 6349,
      "melepaskan": 6350,
      "losing": 6351,
      "Charles": 6352,
      "Detective": 6353,
      "berf": 6354,
      "23": 6355,
      "cash": 6356,
      "sleeping": 6357,
      "tambah": 6358,
      "mani": 6359,
      "tea": 6360,
      "pastikan": 6361,
      "Amy": 6362,
      "finger": 6363,
      "reed": 6364,
      "pleasure": 6365,
      "tran": 6366,
      "darurat": 6367,
      "apartment": 6368,
      "Down": 6369,
      "mut": 6370,
      "pected": 6371,
      "firm": 6372,
      "bunch": 6373,
      "hamil": 6374,
      "closed": 6375,
      "mobilnya": 6376,
      "parat": 6377,
      "Chic": 6378,
      "eksi": 6379,
      "Sand": 6380,
      "menciptakan": 6381,
      "Andy": 6382,
      "endalikan": 6383,
      "Easy": 6384,
      "staying": 6385,
      "iman": 6386,
      "terasa": 6387,
      "alamu": 6388,
      "okan": 6389,
      "Grace": 6390,
      "memilik": 6391,
      "awesome": 6392,
      "offici": 6393,
      "Enough": 6394,
      "Lar": 6395,
      "Carter": 6396,
      "jad": 6397,
      "Pret": 6398,
      "terror": 6399,
      "menghargai": 6400,
      "Eun": 6401,
      "Kedeng": 6402,
      "ggak": 6403,
      "Haruskah": 6404,
      "Ahh": 6405,
      "Pop": 6406,
      "membakar": 6407,
      "ert": 6408,
      "pregn": 6409,
      "mirip": 6410,
      "fol": 6411,
      "gah": 6412,
      "sebagian": 6413,
      "bakat": 6414,
      "persis": 6415,
      "Des": 6416,
      "sey": 6417,
      "names": 6418,
      "Jerman": 6419,
      "ached": 6420,
      "copy": 6421,
      "Josh": 6422,
      "zom": 6423,
      "turning": 6424,
      "utenant": 6425,
      "Jay": 6426,
      "Sm": 6427,
      "keraja": 6428,
      "spell": 6429,
      "bersamanya": 6430,
      "books": 6431,
      "Sean": 6432,
      "adu": 6433,
      "maju": 6434,
      "sungai": 6435,
      "map": 6436,
      "teh": 6437,
      "terkejut": 6438,
      "Ethan": 6439,
      "ibunya": 6440,
      "account": 6441,
      "sibility": 6442,
      "cording": 6443,
      "continue": 6444,
      "ampok": 6445,
      "Rasanya": 6446,
      "dgn": 6447,
      "flu": 6448,
      "kli": 6449,
      "lovely": 6450,
      "CK": 6451,
      "sinar": 6452,
      "kepadanya": 6453,
      "keluarkan": 6454,
      "desa": 6455,
      "Seriously": 6456,
      "IR": 6457,
      "Jung": 6458,
      "PS": 6459,
      "rif": 6460,
      "tron": 6461,
      "Ratu": 6462,
      "membuktikan": 6463,
      "Rusia": 6464,
      "endang": 6465,
      "Res": 6466,
      "entah": 6467,
      "river": 6468,
      "profes": 6469,
      "orn": 6470,
      "epang": 6471,
      "avi": 6472,
      "gunanya": 6473,
      "lapangan": 6474,
      "Kong": 6475,
      "sore": 6476,
      "perminta": 6477,
      "menyingkir": 6478,
      "70": 6479,
      "lig": 6480,
      "crack": 6481,
      "closer": 6482,
      "Jun": 6483,
      "cake": 6484,
      "design": 6485,
      "bill": 6486,
      "yarak": 6487,
      "negeri": 6488,
      "tempuran": 6489,
      "log": 6490,
      "feelings": 6491,
      "intro": 6492,
      "Hong": 6493,
      "Jae": 6494,
      "asiun": 6495,
      "zza": 6496,
      "Doesn": 6497,
      "Patrick": 6498,
      "ov": 6499,
      "mengantar": 6500,
      "menyedihkan": 6501,
      "island": 6502,
      "balls": 6503,
      "memenangkan": 6504,
      "heaven": 6505,
      "SH": 6506,
      "huge": 6507,
      "immediately": 6508,
      "Bagi": 6509,
      "ayam": 6510,
      "Jac": 6511,
      "ades": 6512,
      "klub": 6513,
      "helped": 6514,
      "tara": 6515,
      "icked": 6516,
      "dic": 6517,
      "ST": 6518,
      "warm": 6519,
      "earlier": 6520,
      "Omong": 6521,
      "Lana": 6522,
      "pencuri": 6523,
      "clock": 6524,
      "jun": 6525,
      "refu": 6526,
      "legs": 6527,
      "strength": 6528,
      "pit": 6529,
      "yarakat": 6530,
      "robot": 6531,
      "maksudnya": 6532,
      "Fer": 6533,
      "Baru": 6534,
      "picked": 6535,
      "og": 6536,
      "meyakin": 6537,
      "penyakit": 6538,
      "cide": 6539,
      "lord": 6540,
      "aris": 6541,
      "elder": 6542,
      "cue": 6543,
      "Washing": 6544,
      "ternyata": 6545,
      "Bajingan": 6546,
      "akin": 6547,
      "emput": 6548,
      "suffer": 6549,
      "Sekali": 6550,
      "compet": 6551,
      "Under": 6552,
      "warga": 6553,
      "invest": 6554,
      "patah": 6555,
      ".,": 6556,
      "hello": 6557,
      "waste": 6558,
      "asinya": 6559,
      "erek": 6560,
      "price": 6561,
      "cerdas": 6562,
      "keparat": 6563,
      "22": 6564,
      "jelek": 6565,
      "berl": 6566,
      "stood": 6567,
      "suck": 6568,
      "bebaskan": 6569,
      "Jar": 6570,
      "Kab": 6571,
      "Hall": 6572,
      "Raj": 6573,
      "fs55": 6574,
      "Jerry": 6575,
      "narko": 6576,
      "following": 6577,
      "portun": 6578,
      "Besok": 6579,
      "Haw": 6580,
      "sumber": 6581,
      "dio": 6582,
      "rench": 6583,
      "mengetahuinya": 6584,
      "settle": 6585,
      "Congratulations": 6586,
      "Were": 6587,
      "ketemu": 6588,
      "Washington": 6589,
      "jejak": 6590,
      "halaman": 6591,
      "inde": 6592,
      "menyebutnya": 6593,
      "Cali": 6594,
      "rate": 6595,
      "sian": 6596,
      "ngomong": 6597,
      "Talk": 6598,
      "green": 6599,
      "gust": 6600,
      "lawyer": 6601,
      "CE": 6602,
      "kini": 6603,
      "menyam": 6604,
      "add": 6605,
      "ggs": 6606,
      "Peny": 6607,
      "Buat": 6608,
      "putting": 6609,
      "ALL": 6610,
      "Victoria": 6611,
      "istime": 6612,
      "Wes": 6613,
      "paman": 6614,
      "Most": 6615,
      "AND": 6616,
      "spirit": 6617,
      "Kota": 6618,
      "cincin": 6619,
      "atherine": 6620,
      "melihatku": 6621,
      "direct": 6622,
      "MEN": 6623,
      "Ob": 6624,
      "rab": 6625,
      "Mobil": 6626,
      "nyawa": 6627,
      "Leon": 6628,
      "Cinta": 6629,
      "gives": 6630,
      "Wall": 6631,
      "tia": 6632,
      "Doc": 6633,
      "training": 6634,
      "teen": 6635,
      "Annie": 6636,
      "dete": 6637,
      "Brengsek": 6638,
      "Jaga": 6639,
      "heads": 6640,
      "leher": 6641,
      "access": 6642,
      "Aren": 6643,
      "pulau": 6644,
      "kills": 6645,
      "Tenanglah": 6646,
      "Robin": 6647,
      "menakjubkan": 6648,
      "smile": 6649,
      "kesulit": 6650,
      "vey": 6651,
      "karat": 6652,
      "wine": 6653,
      "gotten": 6654,
      "dro": 6655,
      "Kedengarannya": 6656,
      "cock": 6657,
      "opportun": 6658,
      "kehormatan": 6659,
      "ril": 6660,
      "Sup": 6661,
      "hop": 6662,
      "parah": 6663,
      "Klaus": 6664,
      "jing": 6665,
      "mengucapkan": 6666,
      "IK": 6667,
      "ez": 6668,
      "seekor": 6669,
      "due": 6670,
      "arankan": 6671,
      "melompat": 6672,
      "termasuk": 6673,
      "market": 6674,
      "pemain": 6675,
      "brothers": 6676,
      "Kel": 6677,
      "South": 6678,
      "mencar": 6679,
      "akuti": 6680,
      "Cop": 6681,
      "yell": 6682,
      "crow": 6683,
      "enya": 6684,
      "hatiku": 6685,
      "Tem": 6686,
      "ences": 6687,
      "alis": 6688,
      "nother": 6689,
      "mengirimkan": 6690,
      "samping": 6691,
      "dekati": 6692,
      "embar": 6693,
      "compli": 6694,
      "Clear": 6695,
      "Linc": 6696,
      "akses": 6697,
      "parently": 6698,
      "Other": 6699,
      "hoping": 6700,
      "ceed": 6701,
      "Terimakasih": 6702,
      "taught": 6703,
      "lupakan": 6704,
      "energy": 6705,
      "lelucon": 6706,
      "ering": 6707,
      "eliti": 6708,
      "ingatkan": 6709,
      "transfer": 6710,
      "sejati": 6711,
      "Ladies": 6712,
      "total": 6713,
      "kers": 6714,
      "anggur": 6715,
      "Nya": 6716,
      "iri": 6717,
      "Dom": 6718,
      "jalang": 6719,
      "Flor": 6720,
      "seksi": 6721,
      "Coun": 6722,
      "Demi": 6723,
      "ug": 6724,
      "menghentikannya": 6725,
      "Dah": 6726,
      "Ir": 6727,
      "bantuanmu": 6728,
      "pelatih": 6729,
      "isy": 6730,
      "jalur": 6731,
      "kuti": 6732,
      "plans": 6733,
      "suggest": 6734,
      "namun": 6735,
      "onto": 6736,
      "kesulitan": 6737,
      "Hank": 6738,
      "fis": 6739,
      "ainkan": 6740,
      "techn": 6741,
      "Ingin": 6742,
      "darling": 6743,
      "Hubung": 6744,
      "Pikirkan": 6745,
      "Santa": 6746,
      "mengganti": 6747,
      "engine": 6748,
      "writ": 6749,
      "Joon": 6750,
      "stein": 6751,
      "taste": 6752,
      "beer": 6753,
      "drag": 6754,
      "Francis": 6755,
      "Serge": 6756,
      "paksa": 6757,
      "wondering": 6758,
      "Jepang": 6759,
      "gut": 6760,
      "ns": 6761,
      "kasar": 6762,
      "Lily": 6763,
      "tampan": 6764,
      "Tidakkah": 6765,
      "gerakan": 6766,
      "Mill": 6767,
      "‎.": 6768,
      "atasi": 6769,
      "further": 6770,
      "block": 6771,
      "pegang": 6772,
      "themselves": 6773,
      "wrote": 6774,
      "indungi": 6775,
      "mendorong": 6776,
      "kepalamu": 6777,
      "vampir": 6778,
      "bersikap": 6779,
      "proper": 6780,
      "Jackson": 6781,
      "menawarkan": 6782,
      "saudaraku": 6783,
      "ET": 6784,
      "dibawah": 6785,
      "knife": 6786,
      "sult": 6787,
      "Win": 6788,
      "asaan": 6789,
      "Must": 6790,
      "harm": 6791,
      "signal": 6792,
      "Another": 6793,
      "Brit": 6794,
      "Lisa": 6795,
      "sepuluh": 6796,
      "Same": 6797,
      "gene": 6798,
      "Tri": 6799,
      "park": 6800,
      "lights": 6801,
      "chip": 6802,
      "captain": 6803,
      "mendukung": 6804,
      "balkan": 6805,
      "bodies": 6806,
      "Kemari": 6807,
      "shooting": 6808,
      "convers": 6809,
      "success": 6810,
      "Sar": 6811,
      "tiket": 6812,
      "pread": 6813,
      "Cool": 6814,
      "Jelas": 6815,
      "anian": 6816,
      "hangat": 6817,
      "mengajak": 6818,
      "village": 6819,
      "responsible": 6820,
      "rout": 6821,
      "alamat": 6822,
      "science": 6823,
      "Police": 6824,
      "Light": 6825,
      "rough": 6826,
      "menyerahkan": 6827,
      "ooh": 6828,
      "Hope": 6829,
      "abu": 6830,
      "habisan": 6831,
      "cepatan": 6832,
      "Until": 6833,
      "headed": 6834,
      "suar": 6835,
      "crying": 6836,
      "Sol": 6837,
      "berbagi": 6838,
      "elle": 6839,
      "memilikinya": 6840,
      "jarak": 6841,
      "mulutmu": 6842,
      "pasien": 6843,
      "tdk": 6844,
      "Pin": 6845,
      "dollars": 6846,
      "nine": 6847,
      "drug": 6848,
      "whether": 6849,
      "Intern": 6850,
      "stars": 6851,
      "pertim": 6852,
      "ggy": 6853,
      "China": 6854,
      "mantan": 6855,
      "mengingin": 6856,
      "seorangpun": 6857,
      "menakutkan": 6858,
      "Hampir": 6859,
      "Mum": 6860,
      "shoes": 6861,
      "Finn": 6862,
      "poison": 6863,
      "glass": 6864,
      "adikku": 6865,
      "slip": 6866,
      "fired": 6867,
      "ajak": 6868,
      "sudut": 6869,
      "empty": 6870,
      "kerajaan": 6871,
      "introdu": 6872,
      "iblis": 6873,
      "ganya": 6874,
      "istimewa": 6875,
      "48": 6876,
      "Law": 6877,
      "keeps": 6878,
      "Luar": 6879,
      "Jeff": 6880,
      "tukang": 6881,
      "absolutely": 6882,
      "wing": 6883,
      "Letnan": 6884,
      "vious": 6885,
      "rekaman": 6886,
      "cin": 6887,
      "often": 6888,
      "darat": 6889,
      "celana": 6890,
      "physi": 6891,
      "Pad": 6892,
      "sepenuh": 6893,
      "merubah": 6894,
      "Shar": 6895,
      "tour": 6896,
      "military": 6897,
      "Bank": 6898,
      "Bila": 6899,
      "Cy": 6900,
      "Jor": 6901,
      "sinyal": 6902,
      "mencarinya": 6903,
      "pressure": 6904,
      "penis": 6905,
      "mith": 6906,
      "kondisi": 6907,
      "condition": 6908,
      "Command": 6909,
      "kne": 6910,
      "pengalaman": 6911,
      "Cur": 6912,
      "ats": 6913,
      "Jere": 6914,
      "Kadang": 6915,
      "VE": 6916,
      "YA": 6917,
      "kepalanya": 6918,
      "lder": 6919,
      "kemampuan": 6920,
      "Segera": 6921,
      "Jenny": 6922,
      "Por": 6923,
      "regul": 6924,
      "Better": 6925,
      "gunung": 6926,
      "held": 6927,
      "mengun": 6928,
      "experience": 6929,
      "Istri": 6930,
      "ressed": 6931,
      "Luke": 6932,
      "Bonnie": 6933,
      "Minggir": 6934,
      "olos": 6935,
      "berpura": 6936,
      "betray": 6937,
      "kedalam": 6938,
      "Sek": 6939,
      "coll": 6940,
      "decide": 6941,
      "Pagi": 6942,
      "trick": 6943,
      "French": 6944,
      "queen": 6945,
      "common": 6946,
      "Dev": 6947,
      "intainya": 6948,
      "Ele": 6949,
      "certainly": 6950,
      "dirty": 6951,
      "destroyed": 6952,
      "gelam": 6953,
      "showed": 6954,
      "perhaps": 6955,
      "putriku": 6956,
      "menjemput": 6957,
      "Tahun": 6958,
      "apak": 6959,
      "Wood": 6960,
      "mema": 6961,
      "botol": 6962,
      "pelangg": 6963,
      "Sak": 6964,
      "roof": 6965,
      "drinking": 6966,
      "above": 6967,
      "Sounds": 6968,
      "Kris": 6969,
      "ragu": 6970,
      "hukuman": 6971,
      "gigit": 6972,
      "lutut": 6973,
      "necessary": 6974,
      "Rome": 6975,
      "Maria": 6976,
      "balas": 6977,
      "Home": 6978,
      "Seluruh": 6979,
      "Korea": 6980,
      "perahu": 6981,
      "Masuklah": 6982,
      "kidnap": 6983,
      "yöu": 6984,
      "herself": 6985,
      "beres": 6986,
      "elect": 6987,
      "proof": 6988,
      "',": 6989,
      "Eric": 6990,
      "sions": 6991,
      "hiri": 6992,
      "nyanyi": 6993,
      "rule": 6994,
      "emergency": 6995,
      "itual": 6996,
      "Roh": 6997,
      "Aust": 6998,
      "atangan": 6999,
      "indari": 7000,
      "menghor": 7001,
      "Pull": 7002,
      "mengum": 7003,
      "purpose": 7004,
      "keluargamu": 7005,
      "berdoa": 7006,
      "seku": 7007,
      "Brad": 7008,
      "melanggar": 7009,
      "Snow": 7010,
      "ujung": 7011,
      "belas": 7012,
      "namaku": 7013,
      "Naz": 7014,
      "meman": 7015,
      "apologize": 7016,
      "duty": 7017,
      "itude": 7018,
      "Holly": 7019,
      "ungkap": 7020,
      "GO": 7021,
      "utang": 7022,
      "None": 7023,
      "mengangkat": 7024,
      "Ari": 7025,
      "played": 7026,
      "biaya": 7027,
      "wolf": 7028,
      "bling": 7029,
      "local": 7030,
      "tempt": 7031,
      "alarm": 7032,
      "diatas": 7033,
      "mengab": 7034,
      "chicken": 7035,
      "ened": 7036,
      "anding": 7037,
      "angannya": 7038,
      "Roy": 7039,
      "places": 7040,
      "Jenderal": 7041,
      "narkoba": 7042,
      "upstairs": 7043,
      "Without": 7044,
      "speaking": 7045,
      "favorit": 7046,
      "House": 7047,
      "regre": 7048,
      "nego": 7049,
      "kejam": 7050,
      "malah": 7051,
      "mengel": 7052,
      "aper": 7053,
      "mengunjung": 7054,
      "asai": 7055,
      "uncur": 7056,
      "pregnant": 7057,
      "Case": 7058,
      "usual": 7059,
      "truly": 7060,
      "swim": 7061,
      "baring": 7062,
      "core": 7063,
      "drugs": 7064,
      "tahil": 7065,
      "Majesty": 7066,
      "Jaw": 7067,
      "opter": 7068,
      "ontrol": 7069,
      "Pretty": 7070,
      "Jum": 7071,
      "Sers": 7072,
      "babi": 7073,
      "berhati": 7074,
      "dahulu": 7075,
      "patient": 7076,
      "saku": 7077,
      "beyond": 7078,
      "terburuk": 7079,
      "takdir": 7080,
      "sour": 7081,
      "Mex": 7082,
      "ald": 7083,
      "diberikan": 7084,
      "murdered": 7085,
      "Sersan": 7086,
      "mengajari": 7087,
      "mengawasi": 7088,
      "sche": 7089,
      "memikir": 7090,
      "dansa": 7091,
      "bra": 7092,
      "dict": 7093,
      "kejutan": 7094,
      "salahku": 7095,
      "tangga": 7096,
      "recent": 7097,
      "Head": 7098,
      "vampire": 7099,
      "Follow": 7100,
      "president": 7101,
      "Goth": 7102,
      "dum": 7103,
      "proto": 7104,
      "Melihat": 7105,
      "omi": 7106,
      "menangkapnya": 7107,
      "kenalkan": 7108,
      "menggunakannya": 7109,
      "alakan": 7110,
      "medis": 7111,
      "rekan": 7112,
      "bakaran": 7113,
      "membawaku": 7114,
      "medic": 7115,
      "Care": 7116,
      "pulled": 7117,
      "Cara": 7118,
      "Offic": 7119,
      "basan": 7120,
      "defe": 7121,
      "ltu": 7122,
      "Chi": 7123,
      "lotte": 7124,
      "Probably": 7125,
      "assist": 7126,
      "pertempuran": 7127,
      "Selain": 7128,
      "Free": 7129,
      "Lis": 7130,
      "Always": 7131,
      "bleed": 7132,
      "daddy": 7133,
      "bangunan": 7134,
      "energi": 7135,
      "LO": 7136,
      "smoke": 7137,
      "rumahnya": 7138,
      "harapkan": 7139,
      "summer": 7140,
      "Louis": 7141,
      "Calm": 7142,
      "asis": 7143,
      "activ": 7144,
      "awn": 7145,
      "Chan": 7146,
      "ire": 7147,
      "pants": 7148,
      "ampilan": 7149,
      "bby": 7150,
      "Sep": 7151,
      "kakek": 7152,
      "agumkan": 7153,
      "bottle": 7154,
      "Clar": 7155,
      "kertas": 7156,
      "Kerja": 7157,
      "comfortable": 7158,
      "Relax": 7159,
      "Kang": 7160,
      "masyarakat": 7161,
      "pelayan": 7162,
      "writing": 7163,
      "corner": 7164,
      "Juni": 7165,
      "aware": 7166,
      "tanggal": 7167,
      "Professor": 7168,
      "stories": 7169,
      "spesi": 7170,
      "BA": 7171,
      "Spen": 7172,
      "wound": 7173,
      "twice": 7174,
      "inju": 7175,
      "las": 7176,
      "betul": 7177,
      "arrived": 7178,
      "capa": 7179,
      "aylor": 7180,
      "instru": 7181,
      "pilot": 7182,
      "itanya": 7183,
      "Old": 7184,
      "acu": 7185,
      "afternoon": 7186,
      "Bibi": 7187,
      "ayani": 7188,
      "produk": 7189,
      "penerbangan": 7190,
      "Absolutely": 7191,
      "dents": 7192,
      "sukses": 7193,
      "gerbang": 7194,
      "BE": 7195,
      "Drop": 7196,
      "surprised": 7197,
      "wild": 7198,
      "Ros": 7199,
      "itself": 7200,
      "mond": 7201,
      "ination": 7202,
      "ising": 7203,
      "tikus": 7204,
      "Hay": 7205,
      "Maukah": 7206,
      "sweetheart": 7207,
      "correct": 7208,
      "ift": 7209,
      "animal": 7210,
      "terang": 7211,
      "graph": 7212,
      "pool": 7213,
      "dicul": 7214,
      "location": 7215,
      "Whe": 7216,
      "reading": 7217,
      "rot": 7218,
      "ancaman": 7219,
      "pian": 7220,
      "tahankan": 7221,
      "Soo": 7222,
      "lines": 7223,
      "emplo": 7224,
      "flying": 7225,
      "akes": 7226,
      "kulan": 7227,
      "fornia": 7228,
      "DE": 7229,
      "bloody": 7230,
      "perut": 7231,
      "ditangkap": 7232,
      "wilayah": 7233,
      "alukan": 7234,
      "Far": 7235,
      "setahun": 7236,
      "orrow": 7237,
      "alaupun": 7238,
      "Night": 7239,
      "planning": 7240,
      "lul": 7241,
      "except": 7242,
      "usually": 7243,
      "nologi": 7244,
      "usuk": 7245,
      "Hebat": 7246,
      "text": 7247,
      "telur": 7248,
      "mons": 7249,
      "menyebalkan": 7250,
      "dogs": 7251,
      "bringing": 7252,
      "Lieutenant": 7253,
      "tank": 7254,
      "seolah": 7255,
      "akhiri": 7256,
      "melacak": 7257,
      "nona": 7258,
      "fek": 7259,
      "bijak": 7260,
      "BAR": 7261,
      "notice": 7262,
      "penyel": 7263,
      "pair": 7264,
      "usir": 7265,
      "angku": 7266,
      "Guess": 7267,
      "mencob": 7268,
      "bersedia": 7269,
      "zi": 7270,
      "sengaja": 7271,
      "stage": 7272,
      "faster": 7273,
      "penye": 7274,
      "edom": 7275,
      "arden": 7276,
      "nervous": 7277,
      "indungan": 7278,
      "istrimu": 7279,
      "mengundang": 7280,
      "enty": 7281,
      "driver": 7282,
      "khawatirkan": 7283,
      "klien": 7284,
      "opportunity": 7285,
      "Ell": 7286,
      "semest": 7287,
      "aced": 7288,
      "tuhan": 7289,
      "mencintainya": 7290,
      "menyang": 7291,
      "bilan": 7292,
      "turns": 7293,
      "medical": 7294,
      "dikenal": 7295,
      "karya": 7296,
      "sens": 7297,
      "kacauan": 7298,
      "utara": 7299,
      "Death": 7300,
      "kebetulan": 7301,
      "request": 7302,
      "sopan": 7303,
      "sher": 7304,
      "Beau": 7305,
      "pemilik": 7306,
      "saving": 7307,
      "memberikannya": 7308,
      "bathroom": 7309,
      "hunt": 7310,
      "Seberapa": 7311,
      "Charlotte": 7312,
      "sanya": 7313,
      "Edward": 7314,
      "church": 7315,
      "oce": 7316,
      "malaikat": 7317,
      "niat": 7318,
      "duluan": 7319,
      "Ev": 7320,
      "Rah": 7321,
      "Tor": 7322,
      "pare": 7323,
      "angel": 7324,
      "pocket": 7325,
      "hadn": 7326,
      "Dy": 7327,
      "icide": 7328,
      "breathe": 7329,
      "fate": 7330,
      "berdarah": 7331,
      "checked": 7332,
      "Pend": 7333,
      "flat": 7334,
      "Nenek": 7335,
      "Tex": 7336,
      "incredi": 7337,
      "Tunjukkan": 7338,
      "Lem": 7339,
      "Sti": 7340,
      "dikirim": 7341,
      "Roman": 7342,
      "sibly": 7343,
      "research": 7344,
      "andatangan": 7345,
      "orangnya": 7346,
      "rumit": 7347,
      "amping": 7348,
      "proses": 7349,
      "hook": 7350,
      "among": 7351,
      "hurts": 7352,
      "universe": 7353,
      "memaaf": 7354,
      "knowing": 7355,
      "Life": 7356,
      "erang": 7357,
      "Terserah": 7358,
      "surga": 7359,
      "Olivia": 7360,
      "dipercaya": 7361,
      "rem": 7362,
      "kekasih": 7363,
      "wek": 7364,
      "resmi": 7365,
      "inclu": 7366,
      "pictures": 7367,
      "mahal": 7368,
      "Kyle": 7369,
      "inn": 7370,
      "beth": 7371,
      "breaking": 7372,
      "Cas": 7373,
      "Kata": 7374,
      "Mitch": 7375,
      "ambulan": 7376,
      "Bud": 7377,
      "greatest": 7378,
      "Besides": 7379,
      "Grayson": 7380,
      "kehabisan": 7381,
      "itions": 7382,
      "failed": 7383,
      "dollar": 7384,
      "Ever": 7385,
      "turut": 7386,
      "sepenuhnya": 7387,
      "Jeremy": 7388,
      "sold": 7389,
      "Kal": 7390,
      "mematikan": 7391,
      "mencobanya": 7392,
      "Carrie": 7393,
      "Alice": 7394,
      "ella": 7395,
      "yek": 7396,
      "eta": 7397,
      "pekan": 7398,
      "numbers": 7399,
      "conversation": 7400,
      "permintaan": 7401,
      "Roma": 7402,
      "mini": 7403,
      "lahirkan": 7404,
      "California": 7405,
      "Had": 7406,
      "Goodbye": 7407,
      "BER": 7408,
      "Ren": 7409,
      "Ton": 7410,
      "membayangkan": 7411,
      "study": 7412,
      "grav": 7413,
      "tempatnya": 7414,
      "Kas": 7415,
      "online": 7416,
      "Ikuti": 7417,
      "kuliah": 7418,
      "diki": 7419,
      "Start": 7420,
      "tangannya": 7421,
      "chat": 7422,
      "tap": 7423,
      "mengerjakan": 7424,
      "infe": 7425,
      "wow": 7426,
      "mengemudi": 7427,
      "nose": 7428,
      "istrinya": 7429,
      "Sin": 7430,
      "games": 7431,
      "reli": 7432,
      "thro": 7433,
      "bangkit": 7434,
      "chair": 7435,
      "menga": 7436,
      "Harris": 7437,
      "Jawab": 7438,
      "depart": 7439,
      "judge": 7440,
      "danya": 7441,
      "membalas": 7442,
      "Jean": 7443,
      "focus": 7444,
      "melanjutkan": 7445,
      "memen": 7446,
      "adow": 7447,
      "mula": 7448,
      "Ul": 7449,
      "adanya": 7450,
      "Soph": 7451,
      "Jose": 7452,
      "cac": 7453,
      "kenyataan": 7454,
      "layar": 7455,
      "mengharap": 7456,
      "keliling": 7457,
      "Sab": 7458,
      "berlebih": 7459,
      "Bul": 7460,
      "devel": 7461,
      "north": 7462,
      "simpan": 7463,
      "RI": 7464,
      "Mir": 7465,
      "meat": 7466,
      "requi": 7467,
      "heavy": 7468,
      "letting": 7469,
      "struk": 7470,
      "supaya": 7471,
      "mengenalnya": 7472,
      "Bag": 7473,
      "ciuman": 7474,
      "Jauh": 7475,
      "memories": 7476,
      "Begini": 7477,
      "lad": 7478,
      "kedu": 7479,
      "note": 7480,
      "antunya": 7481,
      "janjian": 7482,
      "nature": 7483,
      "loyal": 7484,
      "Lois": 7485,
      "fake": 7486,
      "oln": 7487,
      "zer": 7488,
      "knock": 7489,
      "Tangan": 7490,
      "Wake": 7491,
      "witness": 7492,
      "rit": 7493,
      "Ky": 7494,
      "Taylor": 7495,
      "meningkat": 7496,
      "Unless": 7497,
      "signed": 7498,
      "expected": 7499,
      "menjag": 7500,
      "ahannya": 7501,
      "Andrew": 7502,
      "Marcus": 7503,
      "perbeda": 7504,
      "bukankah": 7505,
      "gging": 7506,
      "Morning": 7507,
      "Av": 7508,
      "gereja": 7509,
      "nic": 7510,
      "matters": 7511,
      "heading": 7512,
      "ledge": 7513,
      "diculous": 7514,
      "weight": 7515,
      "lelaki": 7516,
      "Duduklah": 7517,
      "sebanyak": 7518,
      "Cle": 7519,
      "adakan": 7520,
      "chief": 7521,
      "Cheers": 7522,
      "berli": 7523,
      "Bull": 7524,
      "famous": 7525,
      "keinginan": 7526,
      "mengumpulkan": 7527,
      "visi": 7528,
      "doku": 7529,
      "gain": 7530,
      "berteman": 7531,
      "alia": 7532,
      "soldiers": 7533,
      "Shoot": 7534,
      "akibat": 7535,
      "pertunjukan": 7536,
      "jik": 7537,
      "walked": 7538,
      "tubuhnya": 7539,
      "Fall": 7540,
      "Aye": 7541,
      "amie": 7542,
      "batasan": 7543,
      "nowhere": 7544,
      "awar": 7545,
      "Prince": 7546,
      "notic": 7547,
      "animals": 7548,
      "World": 7549,
      "komunikasi": 7550,
      "menghormati": 7551,
      "Dewa": 7552,
      "syn": 7553,
      "merindukanmu": 7554,
      "Sw": 7555,
      "Indian": 7556,
      "motherfucker": 7557,
      "tured": 7558,
      "Tangkap": 7559,
      "cellent": 7560,
      "entury": 7561,
      "BU": 7562,
      "tells": 7563,
      "tomat": 7564,
      "Tomorrow": 7565,
      "Senator": 7566,
      "pelajaran": 7567,
      "wakan": 7568,
      "contract": 7569,
      "Officer": 7570,
      "Guar": 7571,
      "bingung": 7572,
      "East": 7573,
      "easi": 7574,
      "shirt": 7575,
      "xi": 7576,
      "tertangkap": 7577,
      "Shaw": 7578,
      "size": 7579,
      "gaya": 7580,
      "soldier": 7581,
      "Fed": 7582,
      "raise": 7583,
      "hancurkan": 7584,
      "scr": 7585,
      "ability": 7586,
      "sekarat": 7587,
      "hack": 7588,
      "Kakek": 7589,
      "Part": 7590,
      "seumur": 7591,
      "ems": 7592,
      "damai": 7593,
      "insane": 7594,
      "Plan": 7595,
      "alnya": 7596,
      "Stark": 7597,
      "memanggilku": 7598,
      "created": 7599,
      "hearing": 7600,
      "memasuk": 7601,
      "jok": 7602,
      "Lincoln": 7603,
      "tuaku": 7604,
      "Chicago": 7605,
      "Mayor": 7606,
      "BO": 7607,
      "dip": 7608,
      "exam": 7609,
      "German": 7610,
      "major": 7611,
      "storm": 7612,
      "Kati": 7613,
      "Ta": 7614,
      "Vo": 7615,
      "jek": 7616,
      "Serius": 7617,
      "bohongan": 7618,
      "identif": 7619,
      "Alan": 7620,
      "mengur": 7621,
      "mengancam": 7622,
      "prefer": 7623,
      "doors": 7624,
      "powers": 7625,
      "stasiun": 7626,
      "tebak": 7627,
      "Empat": 7628,
      "berk": 7629,
      "practice": 7630,
      "Blue": 7631,
      "natural": 7632,
      "loss": 7633,
      "rub": 7634,
      "ghter": 7635,
      "myster": 7636,
      "kins": 7637,
      "Karen": 7638,
      "Morgan": 7639,
      "Derek": 7640,
      "Tok": 7641,
      "app": 7642,
      "suci": 7643,
      "Keluarga": 7644,
      "Wayne": 7645,
      "mendekati": 7646,
      "kekacauan": 7647,
      "Dit": 7648,
      "delapan": 7649,
      "grave": 7650,
      "dumb": 7651,
      "berang": 7652,
      "Break": 7653,
      "sle": 7654,
      "menipu": 7655,
      "berlebihan": 7656,
      "Their": 7657,
      "Greg": 7658,
      "Song": 7659,
      "gro": 7660,
      "tanggung": 7661,
      "buta": 7662,
      "Kubilang": 7663,
      "fakta": 7664,
      "Kent": 7665,
      "Tel": 7666,
      "Adalah": 7667,
      "Play": 7668,
      "prot": 7669,
      "Gordon": 7670,
      "alatan": 7671,
      "mendekat": 7672,
      "guar": 7673,
      "asty": 7674,
      "merawat": 7675,
      "ikian": 7676,
      "bottom": 7677,
      "Kelihat": 7678,
      "dewa": 7679,
      "Rock": 7680,
      "spread": 7681,
      "devil": 7682,
      "obviously": 7683,
      "Kit": 7684,
      "Mend": 7685,
      "lions": 7686,
      "tersangka": 7687,
      "diambil": 7688,
      "Vinc": 7689,
      "cum": 7690,
      "teling": 7691,
      "Bersiap": 7692,
      "melayani": 7693,
      "Blood": 7694,
      "Pab": 7695,
      "west": 7696,
      "acle": 7697,
      "yard": 7698,
      "gelas": 7699,
      "balan": 7700,
      "Cobalah": 7701,
      "menemuimu": 7702,
      "isasi": 7703,
      "diperlukan": 7704,
      "Gent": 7705,
      "mengendalikan": 7706,
      "meletakkan": 7707,
      "dus": 7708,
      "pertam": 7709,
      "Know": 7710,
      "PD": 7711,
      "ghs": 7712,
      "Again": 7713,
      "asleep": 7714,
      "indukan": 7715,
      "folks": 7716,
      "kegelapan": 7717,
      "outta": 7718,
      "mers": 7719,
      "dibanding": 7720,
      "Mason": 7721,
      "Steph": 7722,
      "leaves": 7723,
      "Oper": 7724,
      "cous": 7725,
      "penasaran": 7726,
      "ledakan": 7727,
      "inese": 7728,
      "Ann": 7729,
      "memerlukan": 7730,
      "Mati": 7731,
      "ego": 7732,
      "kecepatan": 7733,
      "sahabat": 7734,
      "asha": 7735,
      "repor": 7736,
      "berencana": 7737,
      "kerasan": 7738,
      "gus": 7739,
      "Sub": 7740,
      "memerintah": 7741,
      "Waktunya": 7742,
      "Eliza": 7743,
      "safety": 7744,
      "Bagian": 7745,
      "Hm": 7746,
      "Anne": 7747,
      "gangan": 7748,
      "tupi": 7749,
      "Off": 7750,
      "bara": 7751,
      "rey": 7752,
      "posit": 7753,
      "Tuhanku": 7754,
      "bertaruh": 7755,
      "nakal": 7756,
      "Euro": 7757,
      "Jamie": 7758,
      "Masa": 7759,
      "weekend": 7760,
      "Sky": 7761,
      "Perancis": 7762,
      "ujian": 7763,
      "diterima": 7764,
      "national": 7765,
      "sembuh": 7766,
      "mempercayai": 7767,
      "pengecut": 7768,
      "Jess": 7769,
      "aralah": 7770,
      "sok": 7771,
      "Luck": 7772,
      "Nathan": 7773,
      "Sus": 7774,
      "budak": 7775,
      "Sebelumnya": 7776,
      "Die": 7777,
      "mama": 7778,
      "tat": 7779,
      "advice": 7780,
      "prepared": 7781,
      "kri": 7782,
      "murid": 7783,
      "student": 7784,
      "Ikut": 7785,
      "Uang": 7786,
      "asilkan": 7787,
      "lolos": 7788,
      "south": 7789,
      "toh": 7790,
      "kesan": 7791,
      "katanya": 7792,
      "Lewat": 7793,
      "kerjaan": 7794,
      "bite": 7795,
      "hitung": 7796,
      "uhi": 7797,
      "kerus": 7798,
      "Dear": 7799,
      "spoke": 7800,
      "Kini": 7801,
      "familiar": 7802,
      "uan": 7803,
      "nuts": 7804,
      "taman": 7805,
      "adem": 7806,
      "sym": 7807,
      "Colonel": 7808,
      "hijau": 7809,
      "balilah": 7810,
      "kungan": 7811,
      "Ped": 7812,
      "Howard": 7813,
      "Cast": 7814,
      "Nat": 7815,
      "Shall": 7816,
      "ekor": 7817,
      "Manusia": 7818,
      "membahas": 7819,
      "Juga": 7820,
      "finding": 7821,
      "kebaikan": 7822,
      "Tarik": 7823,
      "Utara": 7824,
      "Aar": 7825,
      "Katie": 7826,
      "Cass": 7827,
      "unan": 7828,
      "gur": 7829,
      "mainkan": 7830,
      "bayaran": 7831,
      "rog": 7832,
      "neither": 7833,
      "Mid": 7834,
      "Ga": 7835,
      "posed": 7836,
      "kapten": 7837,
      "Sementara": 7838,
      "Soon": 7839,
      "rumahmu": 7840,
      "mengarah": 7841,
      "Ol": 7842,
      "gugup": 7843,
      "keuntungan": 7844,
      "ikiran": 7845,
      "apus": 7846,
      "reput": 7847,
      "menyebar": 7848,
      "menyukaimu": 7849,
      "bernyanyi": 7850,
      "teroris": 7851,
      "tambahan": 7852,
      "amkan": 7853,
      "stab": 7854,
      "muk": 7855,
      "iksaan": 7856,
      "cahkan": 7857,
      "zation": 7858,
      "reas": 7859,
      "sence": 7860,
      "angkah": 7861,
      "mengembalikan": 7862,
      "strate": 7863,
      "dung": 7864,
      "Ass": 7865,
      "berant": 7866,
      "ridiculous": 7867,
      "tertentu": 7868,
      "teori": 7869,
      "cars": 7870,
      "Bapa": 7871,
      "cobaan": 7872,
      "operation": 7873,
      "Sini": 7874,
      "kepercaya": 7875,
      "chall": 7876,
      "create": 7877,
      "meyakinkan": 7878,
      "Len": 7879,
      "tersenyum": 7880,
      "Kolonel": 7881,
      "believed": 7882,
      "baliknya": 7883,
      "aver": 7884,
      "bright": 7885,
      "bound": 7886,
      "wajahnya": 7887,
      "suddenly": 7888,
      "Naik": 7889,
      "ache": 7890,
      "sesi": 7891,
      "whose": 7892,
      "sever": 7893,
      "bermimpi": 7894,
      "tekanan": 7895,
      "menginginkannya": 7896,
      "cintai": 7897,
      "dong": 7898,
      "Dulu": 7899,
      "memainkan": 7900,
      "kuncinya": 7901,
      "release": 7902,
      "Cina": 7903,
      "tali": 7904,
      "aud": 7905,
      "Chinese": 7906,
      "woods": 7907,
      "Lain": 7908,
      "author": 7909,
      "Sue": 7910,
      "Shin": 7911,
      "towards": 7912,
      "memaksa": 7913,
      "dropped": 7914,
      "Perang": 7915,
      "kontak": 7916,
      "mengenali": 7917,
      "pertimbangkan": 7918,
      "simply": 7919,
      "selatan": 7920,
      "Bagai": 7921,
      "likel": 7922,
      "temannya": 7923,
      "lembut": 7924,
      "sesat": 7925,
      "regret": 7926,
      "wers": 7927,
      "zat": 7928,
      "Besar": 7929,
      "bust": 7930,
      "merokok": 7931,
      "pizza": 7932,
      "ode": 7933,
      "eret": 7934,
      "Bravo": 7935,
      "large": 7936,
      "Wu": 7937,
      "idur": 7938,
      "astaga": 7939,
      "grade": 7940,
      "melewatkan": 7941,
      "Pos": 7942,
      "secrets": 7943,
      "mence": 7944,
      "ingku": 7945,
      "loud": 7946,
      "Ask": 7947,
      "ukuran": 7948,
      "partic": 7949,
      "akunya": 7950,
      "upu": 7951,
      "menghasilkan": 7952,
      "indahkan": 7953,
      "terkena": 7954,
      "written": 7955,
      "alous": 7956,
      "humans": 7957,
      "shame": 7958,
      "rakyat": 7959,
      "Caroline": 7960,
      "bangsa": 7961,
      "Nope": 7962,
      "wet": 7963,
      "trail": 7964,
      "usion": 7965,
      "Rebecca": 7966,
      "Dong": 7967,
      "upun": 7968,
      "berusia": 7969,
      "mengejut": 7970,
      "Pembunuh": 7971,
      "kemenangan": 7972,
      "Katanya": 7973,
      "split": 7974,
      "Alpha": 7975,
      "tangkap": 7976,
      "abandon": 7977,
      "wajahmu": 7978,
      "kece": 7979,
      "Marty": 7980,
      "fem": 7981,
      "Tam": 7982,
      "memperhatikan": 7983,
      "Tadi": 7984,
      "recognize": 7985,
      "ee": 7986,
      "panik": 7987,
      "United": 7988,
      "aurant": 7989,
      "process": 7990,
      "Cole": 7991,
      "kayu": 7992,
      "misteri": 7993,
      "filled": 7994,
      "perlindungan": 7995,
      "Smith": 7996,
      "sasa": 7997,
      "ounce": 7998,
      "mengakui": 7999,
      "kamp": 8000,
      "older": 8001,
      "treme": 8002,
      "guilty": 8003,
      "desk": 8004,
      "Dragon": 8005,
      "breakfast": 8006,
      "Except": 8007,
      "teeth": 8008,
      "rasakan": 8009,
      "Ternyata": 8010,
      "Letakkan": 8011,
      "easier": 8012,
      "grown": 8013,
      "ajah": 8014,
      "Lisbon": 8015,
      "cies": 8016,
      "brave": 8017,
      "pengu": 8018,
      "kim": 8019,
      "tergantung": 8020,
      "Gary": 8021,
      "media": 8022,
      "menyus": 8023,
      "katamu": 8024,
      "Both": 8025,
      "Secara": 8026,
      "client": 8027,
      "ampion": 8028,
      "interview": 8029,
      "Princess": 8030,
      "barat": 8031,
      "yeong": 8032,
      "berlatih": 8033,
      "Leo": 8034,
      "badai": 8035,
      "Trans": 8036,
      "tape": 8037,
      "realized": 8038,
      "agam": 8039,
      "angkasa": 8040,
      "cs": 8041,
      "kee": 8042,
      "disappoint": 8043,
      "Kelly": 8044,
      "pieces": 8045,
      "excited": 8046,
      "garet": 8047,
      "Sergeant": 8048,
      "contain": 8049,
      "Major": 8050,
      "nih": 8051,
      "itung": 8052,
      "matanya": 8053,
      "malang": 8054,
      "kuno": 8055,
      "roti": 8056,
      "bosankan": 8057,
      "ajaiban": 8058,
      "Cent": 8059,
      "seemed": 8060,
      "justice": 8061,
      "Lam": 8062,
      "mengenakan": 8063,
      "menurun": 8064,
      "dasarkan": 8065,
      "kagak": 8066,
      "pengetahu": 8067,
      "Anyone": 8068,
      "obatan": 8069,
      "Los": 8070,
      "melem": 8071,
      "perbedaan": 8072,
      "engkar": 8073,
      "EM": 8074,
      "attacked": 8075,
      "kepalaku": 8076,
      "beauty": 8077,
      "Casey": 8078,
      "wel": 8079,
      "perfor": 8080,
      "possibly": 8081,
      "SO": 8082,
      "somehow": 8083,
      "Ban": 8084,
      "Panger": 8085,
      "SU": 8086,
      "mendatang": 8087,
      "clearly": 8088,
      "Gro": 8089,
      "Nanti": 8090,
      "ices": 8091,
      "singkat": 8092,
      "27": 8093,
      "colm": 8094,
      "kelihatannya": 8095,
      "credit": 8096,
      "whis": 8097,
      "tump": 8098,
      "exe": 8099,
      "kedar": 8100,
      "Nn": 8101,
      "Inspe": 8102,
      "Kay": 8103,
      "parkir": 8104,
      "starts": 8105,
      "merasakannya": 8106,
      "ongan": 8107,
      "Minum": 8108,
      "khianat": 8109,
      "dry": 8110,
      "project": 8111,
      "likely": 8112,
      "mood": 8113,
      "repe": 8114,
      "shadow": 8115,
      "Malcolm": 8116,
      "investigation": 8117,
      "Cel": 8118,
      "phe": 8119,
      "kubantu": 8120,
      "current": 8121,
      "memasuki": 8122,
      "biggest": 8123,
      "effect": 8124,
      "Dick": 8125,
      "gat": 8126,
      "hip": 8127,
      "tenggelam": 8128,
      "lulus": 8129,
      "Vincent": 8130,
      "gratis": 8131,
      "tics": 8132,
      "Keren": 8133,
      "SM": 8134,
      "menyeli": 8135,
      "PER": 8136,
      "loose": 8137,
      "khianati": 8138,
      "wart": 8139,
      "nasib": 8140,
      "materi": 8141,
      "Dead": 8142,
      "general": 8143,
      "AD": 8144,
      "Pus": 8145,
      "bless": 8146,
      "Vik": 8147,
      "Things": 8148,
      "Ai": 8149,
      "Hak": 8150,
      "gudang": 8151,
      "lihatlah": 8152,
      "nggak": 8153,
      "senior": 8154,
      "Scar": 8155,
      "cint": 8156,
      "kitchen": 8157,
      "trik": 8158,
      "meaning": 8159,
      "tolen": 8160,
      "berumur": 8161,
      "riel": 8162,
      "followed": 8163,
      "Bun": 8164,
      "rice": 8165,
      "lips": 8166,
      "kembang": 8167,
      "Rag": 8168,
      "menyakitkan": 8169,
      "Maya": 8170,
      "Save": 8171,
      "peneliti": 8172,
      "perasaanmu": 8173,
      "lanjutkan": 8174,
      "efek": 8175,
      "hanging": 8176,
      "Yun": 8177,
      "gentle": 8178,
      "berenang": 8179,
      "Fel": 8180,
      "hic": 8181,
      "utan": 8182,
      "memecahkan": 8183,
      "clim": 8184,
      "Dark": 8185,
      "ungguhnya": 8186,
      "profesi": 8187,
      "dibawa": 8188,
      "berlangsung": 8189,
      "memalukan": 8190,
      "membantunya": 8191,
      "stal": 8192,
      "kenangan": 8193,
      "continu": 8194,
      "Nikita": 8195,
      "Hun": 8196,
      "kontrak": 8197,
      "dapur": 8198,
      "heat": 8199,
      "andangan": 8200,
      "meluk": 8201,
      "nights": 8202,
      "mencintaiku": 8203,
      "bik": 8204,
      "Med": 8205,
      "Ori": 8206,
      "zzy": 8207,
      "pendek": 8208,
      "answers": 8209,
      "fellow": 8210,
      "========": 8211,
      "Texas": 8212,
      "tipe": 8213,
      "hou": 8214,
      "berkas": 8215,
      "peralatan": 8216,
      "umber": 8217,
      "strike": 8218,
      "April": 8219,
      "..,": 8220,
      "restoran": 8221,
      "wenty": 8222,
      "rise": 8223,
      "pecat": 8224,
      "geng": 8225,
      "pemak": 8226,
      "Pangeran": 8227,
      "zombie": 8228,
      "antin": 8229,
      "membiarkanmu": 8230,
      "jack": 8231,
      "cts": 8232,
      "ordinary": 8233,
      "gods": 8234,
      "Selatan": 8235,
      "Pes": 8236,
      "afford": 8237,
      "soft": 8238,
      "hh": 8239,
      "fort": 8240,
      "cere": 8241,
      "diketahui": 8242,
      "adop": 8243,
      "dosa": 8244,
      "courage": 8245,
      "Trav": 8246,
      "campur": 8247,
      "sequ": 8248,
      "reck": 8249,
      "kacang": 8250,
      "inder": 8251,
      "communic": 8252,
      "aring": 8253,
      "Menjauh": 8254,
      "mengacaukan": 8255,
      "mendarat": 8256,
      "lihatkan": 8257,
      "menyi": 8258,
      "mataku": 8259,
      "Madam": 8260,
      "Murphy": 8261,
      "Sid": 8262,
      "avoid": 8263,
      "tangani": 8264,
      "maid": 8265,
      "aparan": 8266,
      "pember": 8267,
      "satupun": 8268,
      "talent": 8269,
      "membac": 8270,
      "Periksa": 8271,
      "bles": 8272,
      "concerned": 8273,
      "berurusan": 8274,
      "mengagumkan": 8275,
      "ihan": 8276,
      "graf": 8277,
      "ditembak": 8278,
      "restaurant": 8279,
      "dokumen": 8280,
      "aging": 8281,
      "style": 8282,
      "cares": 8283,
      "expen": 8284,
      "keluarganya": 8285,
      "Whit": 8286,
      "vy": 8287,
      "dol": 8288,
      "hatimu": 8289,
      "semesta": 8290,
      "paying": 8291,
      "Jacob": 8292,
      "snow": 8293,
      "kebohongan": 8294,
      "perty": 8295,
      "melukai": 8296,
      "walls": 8297,
      "federal": 8298,
      "Kali": 8299,
      "kekerasan": 8300,
      "menjalani": 8301,
      "fortunately": 8302,
      "Nomor": 8303,
      "suruh": 8304,
      "pse": 8305,
      "aikannya": 8306,
      "suicide": 8307,
      "bocah": 8308,
      "HE": 8309,
      "Joo": 8310,
      "SMA": 8311,
      "isah": 8312,
      "etak": 8313,
      "keberuntungan": 8314,
      "baikan": 8315,
      "berhak": 8316,
      "mony": 8317,
      "Hard": 8318,
      "indust": 8319,
      "subject": 8320,
      "langu": 8321,
      "Sad": 8322,
      "segar": 8323,
      "pengawas": 8324,
      "falling": 8325,
      "Mulder": 8326,
      "sending": 8327,
      "Op": 8328,
      "ijin": 8329,
      "awful": 8330,
      "mix": 8331,
      "jas": 8332,
      "hidung": 8333,
      "liter": 8334,
      "Squ": 8335,
      "duh": 8336,
      "ech": 8337,
      "shine": 8338,
      "kelah": 8339,
      "Pertanya": 8340,
      "descri": 8341,
      "menet": 8342,
      "memperlakukan": 8343,
      "sulang": 8344,
      "pencari": 8345,
      "pertar": 8346,
      "records": 8347,
      "Kir": 8348,
      "masukkan": 8349,
      "deliver": 8350,
      "berantakan": 8351,
      "responsibility": 8352,
      "Lab": 8353,
      "ole": 8354,
      "vili": 8355,
      "mesan": 8356,
      "bucks": 8357,
      "shows": 8358,
      "tarik": 8359,
      "mengajar": 8360,
      "dancing": 8361,
      "Clay": 8362,
      "26": 8363,
      "diantara": 8364,
      "Cepatlah": 8365,
      "noticed": 8366,
      "Cour": 8367,
      "Khan": 8368,
      "nin": 8369,
      "prior": 8370,
      "criminal": 8371,
      "28": 8372,
      "menem": 8373,
      "meninggalkannya": 8374,
      "hem": 8375,
      "olan": 8376,
      "Keluarkan": 8377,
      "termin": 8378,
      "membo": 8379,
      "ruin": 8380,
      "blok": 8381,
      "mengajukan": 8382,
      "Aman": 8383,
      "vable": 8384,
      "chop": 8385,
      "mencarimu": 8386,
      "menghapus": 8387,
      "pretend": 8388,
      "mengisi": 8389,
      "Begitulah": 8390,
      "stolen": 8391,
      "oop": 8392,
      "mendengarku": 8393,
      "Wat": 8394,
      "bekas": 8395,
      "milk": 8396,
      "nasional": 8397,
      "punggung": 8398,
      "eni": 8399,
      "berke": 8400,
      "berpakaian": 8401,
      "identitas": 8402,
      "bersihkan": 8403,
      "Lagipula": 8404,
      "raga": 8405,
      "Pasukan": 8406,
      "lingkungan": 8407,
      "eras": 8408,
      "revenge": 8409,
      "pam": 8410,
      "menculik": 8411,
      "Punya": 8412,
      "secepatnya": 8413,
      "rific": 8414,
      "cewek": 8415,
      "merindukan": 8416,
      "een": 8417,
      "jaman": 8418,
      "santai": 8419,
      "kuberitahu": 8420,
      "revol": 8421,
      "ggle": 8422,
      "opini": 8423,
      "Hill": 8424,
      "barely": 8425,
      "Kira": 8426,
      "complain": 8427,
      "tentangmu": 8428,
      "handsome": 8429,
      "jet": 8430,
      "ching": 8431,
      "Heh": 8432,
      "shower": 8433,
      "nearly": 8434,
      "cards": 8435,
      "mengand": 8436,
      "ERE": 8437,
      "laughing": 8438,
      "lni": 8439,
      "Pablo": 8440,
      "esti": 8441,
      "Sammy": 8442,
      "Abby": 8443,
      "presiden": 8444,
      "Anjing": 8445,
      "gaun": 8446,
      "isap": 8447,
      "aves": 8448,
      "peta": 8449,
      "lemari": 8450,
      "suamiku": 8451,
      "Kelihatannya": 8452,
      "ando": 8453,
      "status": 8454,
      "rupt": 8455,
      "Pick": 8456,
      "Seven": 8457,
      "badan": 8458,
      "Conrad": 8459,
      "serigala": 8460,
      "Bicara": 8461,
      "While": 8462,
      "Buk": 8463,
      "ador": 8464,
      "lapor": 8465,
      "meneriman": 8466,
      "vent": 8467,
      "Hee": 8468,
      "culik": 8469,
      "Fitz": 8470,
      "kukira": 8471,
      "Rem": 8472,
      "site": 8473,
      "teknologi": 8474,
      "Flash": 8475,
      "911": 8476,
      "Crow": 8477,
      "acket": 8478,
      "manage": 8479,
      "illiant": 8480,
      "Mic": 8481,
      "memikirkannya": 8482,
      "sifat": 8483,
      "complicated": 8484,
      "Face": 8485,
      "abrak": 8486,
      "Suami": 8487,
      "States": 8488,
      "Qui": 8489,
      "adikmu": 8490,
      "Gal": 8491,
      "eas": 8492,
      "beach": 8493,
      "Perhatikan": 8494,
      "sekedar": 8495,
      "perjanjian": 8496,
      "bury": 8497,
      "tertidur": 8498,
      "pertarungan": 8499,
      "Close": 8500,
      "telanjang": 8501,
      "murah": 8502,
      "ception": 8503,
      "Shel": 8504,
      "menurutku": 8505,
      "property": 8506,
      "Hannah": 8507,
      "menerimanya": 8508,
      "TU": 8509,
      "Lock": 8510,
      "Singh": 8511,
      "illa": 8512,
      "sweetie": 8513,
      "regular": 8514,
      "Ian": 8515,
      "sees": 8516,
      "chain": 8517,
      "jadwal": 8518,
      "merencan": 8519,
      "genius": 8520,
      "atic": 8521,
      "sele": 8522,
      "ils": 8523,
      "Susan": 8524,
      "elit": 8525,
      "berhutang": 8526,
      "shake": 8527,
      "dul": 8528,
      "Sulit": 8529,
      "Bau": 8530,
      "Spart": 8531,
      "Tonight": 8532,
      "esar": 8533,
      "damage": 8534,
      "ribuan": 8535,
      "bira": 8536,
      "pup": 8537,
      "dibutuhkan": 8538,
      "SC": 8539,
      "sica": 8540,
      "proyek": 8541,
      "Menjadi": 8542,
      "Frankie": 8543,
      "returned": 8544,
      "counter": 8545,
      "Mars": 8546,
      "Pegang": 8547,
      "argu": 8548,
      "membutuhkannya": 8549,
      "vac": 8550,
      "armed": 8551,
      "Jap": 8552,
      "Lan": 8553,
      "dust": 8554,
      "plenty": 8555,
      "fought": 8556,
      "weather": 8557,
      "Walker": 8558,
      "arrested": 8559,
      "ligence": 8560,
      "Alison": 8561,
      "Luthor": 8562,
      "membiarkannya": 8563,
      "..?": 8564,
      "duka": 8565,
      "memenuhi": 8566,
      "farm": 8567,
      "hendak": 8568,
      "spesial": 8569,
      "kembalikan": 8570,
      "kirkan": 8571,
      "keduanya": 8572,
      "Elizabeth": 8573,
      "Bertahan": 8574,
      "menji": 8575,
      "Sweet": 8576,
      "Tahu": 8577,
      "hm": 8578,
      "Fun": 8579,
      "bend": 8580,
      "dal": 8581,
      "kebakaran": 8582,
      "rescue": 8583,
      "Harusnya": 8584,
      "mengunjungi": 8585,
      "theory": 8586,
      "kubur": 8587,
      "antinya": 8588,
      "hidden": 8589,
      "putra": 8590,
      "ambilkan": 8591,
      "original": 8592,
      "organi": 8593,
      "Radi": 8594,
      "scare": 8595,
      "Club": 8596,
      "punish": 8597,
      "Brown": 8598,
      "mengharapkan": 8599,
      "tro": 8600,
      "ware": 8601,
      "buried": 8602,
      "Adik": 8603,
      "hadapi": 8604,
      "Linda": 8605,
      "mist": 8606,
      "nger": 8607,
      "terhormat": 8608,
      "hes": 8609,
      "Girl": 8610,
      "agreed": 8611,
      "ential": 8612,
      "mengkhianati": 8613,
      "labor": 8614,
      "entukan": 8615,
      "enemies": 8616,
      "discuss": 8617,
      "lint": 8618,
      "iron": 8619,
      "Tang": 8620,
      "seal": 8621,
      "Division": 8622,
      "DC": 8623,
      "End": 8624,
      "Sung": 8625,
      "miskin": 8626,
      "PA": 8627,
      "juan": 8628,
      "gion": 8629,
      "prov": 8630,
      "aving": 8631,
      "Petugas": 8632,
      "crash": 8633,
      "..!": 8634,
      "refer": 8635,
      "extreme": 8636,
      "cient": 8637,
      "mengece": 8638,
      "kebanyakan": 8639,
      "Profes": 8640,
      "penyeli": 8641,
      "kering": 8642,
      "inggalkan": 8643,
      "disappeared": 8644,
      "Julia": 8645,
      "berputar": 8646,
      "loser": 8647,
      "baris": 8648,
      "burger": 8649,
      "demikian": 8650,
      "approach": 8651,
      "Clarke": 8652,
      "Wy": 8653,
      "beruang": 8654,
      "berkumpul": 8655,
      "forgotten": 8656,
      "Thor": 8657,
      "beku": 8658,
      "Cre": 8659,
      "Gam": 8660,
      "kutuk": 8661,
      "Angg": 8662,
      "Rad": 8663,
      "jat": 8664,
      "flash": 8665,
      "itar": 8666,
      "brief": 8667,
      "andatangani": 8668,
      "Kno": 8669,
      "warn": 8670,
      "sarapan": 8671,
      "berfungsi": 8672,
      "Il": 8673,
      "assume": 8674,
      "bass": 8675,
      "krim": 8676,
      "membosankan": 8677,
      "iro": 8678,
      "los": 8679,
      "Camp": 8680,
      "ion": 8681,
      "points": 8682,
      "ulah": 8683,
      "pembicara": 8684,
      "received": 8685,
      "Boston": 8686,
      "borrow": 8687,
      "membutuhkanmu": 8688,
      "caramu": 8689,
      "department": 8690,
      "jiw": 8691,
      "horrible": 8692,
      "football": 8693,
      "Pa": 8694,
      "seped": 8695,
      "Aaron": 8696,
      "shel": 8697,
      "Terkadang": 8698,
      "hion": 8699,
      "Joey": 8700,
      "potongan": 8701,
      "keberada": 8702,
      "minyak": 8703,
      "cousin": 8704,
      "anny": 8705,
      "pukulan": 8706,
      "tongkat": 8707,
      "Turunkan": 8708,
      "Pilih": 8709,
      "Pulang": 8710,
      "tangg": 8711,
      "tered": 8712,
      "bokong": 8713,
      "Takkan": 8714,
      "trial": 8715,
      "Kurt": 8716,
      "menguasai": 8717,
      "berlalu": 8718,
      "Moon": 8719,
      "Step": 8720,
      "berkelahi": 8721,
      "menghalang": 8722,
      "emotion": 8723,
      "pecting": 8724,
      "atar": 8725,
      "students": 8726,
      "glo": 8727,
      "roh": 8728,
      "moder": 8729,
      "Small": 8730,
      "Fis": 8731,
      "curse": 8732,
      "umpang": 8733,
      "career": 8734,
      "invited": 8735,
      "Sis": 8736,
      "Kara": 8737,
      "PR": 8738,
      "ahudi": 8739,
      "kesen": 8740,
      "Spencer": 8741,
      "tery": 8742,
      "gemar": 8743,
      "wu": 8744,
      "anyikan": 8745,
      "Seles": 8746,
      "opened": 8747,
      "stronger": 8748,
      "ugly": 8749,
      "guards": 8750,
      "screw": 8751,
      "sapi": 8752,
      "chose": 8753,
      "memintaku": 8754,
      "vehic": 8755,
      "Perfect": 8756,
      "penderita": 8757,
      "jealous": 8758,
      "ied": 8759,
      "kait": 8760,
      "antan": 8761,
      "agukan": 8762,
      "menyalahkan": 8763,
      "kelaparan": 8764,
      "isinya": 8765,
      "Pemer": 8766,
      "spirasi": 8767,
      "Prom": 8768,
      "Hubungi": 8769,
      "dressed": 8770,
      "timur": 8771,
      "berburu": 8772,
      "baik2": 8773,
      "Secre": 8774,
      "angkan": 8775,
      "Larry": 8776,
      "stitu": 8777,
      "nyonya": 8778,
      "princess": 8779,
      "tenaga": 8780,
      "thoughts": 8781,
      "Sayangnya": 8782,
      "particular": 8783,
      "wich": 8784,
      "besi": 8785,
      "abrik": 8786,
      "mengajarkan": 8787,
      "jembatan": 8788,
      "Kai": 8789,
      "aint": 8790,
      "ketat": 8791,
      "wheel": 8792,
      "Dor": 8793,
      "pings": 8794,
      "ancing": 8795,
      "issue": 8796,
      "flowers": 8797,
      "secure": 8798,
      "nyaw": 8799,
      "forced": 8800,
      "_BAR": 8801,
      "sne": 8802,
      "knowledge": 8803,
      "warning": 8804,
      "_BAR_": 8805,
      "Din": 8806,
      "trade": 8807,
      "civili": 8808,
      "hadapan": 8809,
      "menghitung": 8810,
      "connection": 8811,
      "pikiranmu": 8812,
      "streets": 8813,
      "kecewa": 8814,
      "400": 8815,
      "Les": 8816,
      "iao": 8817,
      "cip": 8818,
      "Jessica": 8819,
      "FFFFFF": 8820,
      "Send": 8821,
      "menghindari": 8822,
      "memasak": 8823,
      "Saudara": 8824,
      "Fil": 8825,
      "charac": 8826,
      "Main": 8827,
      "Real": 8828,
      "Jas": 8829,
      "keajaiban": 8830,
      "freedom": 8831,
      "beast": 8832,
      "keberanian": 8833,
      "Batman": 8834,
      "Sakit": 8835,
      "billion": 8836,
      "grew": 8837,
      "Fight": 8838,
      "sheriff": 8839,
      "peril": 8840,
      "kebun": 8841,
      "event": 8842,
      "sexy": 8843,
      "99": 8844,
      "tersesat": 8845,
      "pasar": 8846,
      "jujurnya": 8847,
      "Hyun": 8848,
      "inan": 8849,
      "arang": 8850,
      "beristirahat": 8851,
      "pandangan": 8852,
      "Use": 8853,
      "belongs": 8854,
      "specif": 8855,
      "Miller": 8856,
      "Gentlemen": 8857,
      "font": 8858,
      "saran": 8859,
      "Bom": 8860,
      "creep": 8861,
      "spy": 8862,
      "Harold": 8863,
      "Mexico": 8864,
      "Bodoh": 8865,
      "River": 8866,
      "reached": 8867,
      "suff": 8868,
      "files": 8869,
      "Hanna": 8870,
      "memintamu": 8871,
      "Mata": 8872,
      "inten": 8873,
      "airport": 8874,
      "hakim": 8875,
      "Komandan": 8876,
      "brings": 8877,
      "alasannya": 8878,
      "hatilah": 8879,
      "threw": 8880,
      "lots": 8881,
      "mustahil": 8882,
      "melaporkan": 8883,
      "wash": 8884,
      "pelakunya": 8885,
      "motion": 8886,
      "Wonder": 8887,
      "pengetahuan": 8888,
      "Slow": 8889,
      "menjatuhkan": 8890,
      "ELL": 8891,
      "confu": 8892,
      "amed": 8893,
      "ulangi": 8894,
      "darkness": 8895,
      "Bolehkah": 8896,
      "Russian": 8897,
      "TK": 8898,
      "rer": 8899,
      "ub": 8900,
      "pig": 8901,
      "Sister": 8902,
      "center": 8903,
      "drama": 8904,
      "Ane": 8905,
      "jaringan": 8906,
      "harder": 8907,
      "warri": 8908,
      "Guy": 8909,
      "ukurlah": 8910,
      "Darah": 8911,
      "trau": 8912,
      "passion": 8913,
      "cHFFFFFF": 8914,
      "Pay": 8915,
      "pekerjaanku": 8916,
      "Ze": 8917,
      "active": 8918,
      "lately": 8919,
      "profesional": 8920,
      "introduce": 8921,
      "Ph": 8922,
      "nation": 8923,
      "page": 8924,
      "appears": 8925,
      "raksasa": 8926,
      "Copy": 8927,
      "melempar": 8928,
      "iru": 8929,
      "temper": 8930,
      "throat": 8931,
      "kerusakan": 8932,
      "peringatan": 8933,
      "tingkah": 8934,
      "indi": 8935,
      "pensi": 8936,
      "topi": 8937,
      "Coming": 8938,
      "Mont": 8939,
      "akuan": 8940,
      "asikan": 8941,
      "defense": 8942,
      "raz": 8943,
      "Artinya": 8944,
      "pekerjaanmu": 8945,
      "setia": 8946,
      "session": 8947,
      "runs": 8948,
      "menyakitimu": 8949,
      "sesungguhnya": 8950,
      "painting": 8951,
      "Sekitar": 8952,
      "atasnya": 8953,
      "terserah": 8954,
      "whoever": 8955,
      "Disana": 8956,
      "Pastikan": 8957,
      "itasi": 8958,
      "tical": 8959,
      "tuamu": 8960,
      "whom": 8961,
      "gradu": 8962,
      "Grant": 8963,
      "Comp": 8964,
      "divor": 8965,
      "ency": 8966,
      "limit": 8967,
      "lokal": 8968,
      "piness": 8969,
      "Todd": 8970,
      "ordered": 8971,
      "kakimu": 8972,
      "Melakukan": 8973,
      "trol": 8974,
      "istana": 8975,
      "consci": 8976,
      "teor": 8977,
      "rifice": 8978,
      "kriminal": 8979,
      "Ci": 8980,
      "Cooper": 8981,
      "bffff": 8982,
      "ontak": 8983,
      "ores": 8984,
      "faatkan": 8985,
      "cH5bffff": 8986,
      "naga": 8987,
      "capable": 8988,
      "mengecewakan": 8989,
      "hah": 8990,
      "sei": 8991,
      "liburan": 8992,
      "kepercayaan": 8993,
      "attempt": 8994,
      "dibayar": 8995,
      "chest": 8996,
      "menggambar": 8997,
      "Hotel": 8998,
      "goodbye": 8999,
      "Butuh": 9000,
      "kolam": 9001,
      "schedu": 9002,
      "kuasa": 9003,
      "terkunci": 9004,
      "tepatnya": 9005,
      "una": 9006,
      "shh": 9007,
      "salju": 9008,
      "Miles": 9009,
      "roe": 9010,
      "Os": 9011,
      "TA": 9012,
      "jaan": 9013,
      "cad": 9014,
      "sayap": 9015,
      "versity": 9016,
      "papers": 9017,
      "journey": 9018,
      "Water": 9019,
      "dealing": 9020,
      "scary": 9021,
      "fal": 9022,
      "aco": 9023,
      "mengakhiri": 9024,
      "parti": 9025,
      "Director": 9026,
      "Commander": 9027,
      "TI": 9028,
      "pecundang": 9029,
      "Yan": 9030,
      "endar": 9031,
      "pele": 9032,
      "Stone": 9033,
      "WE": 9034,
      "elev": 9035,
      "icious": 9036,
      "hay": 9037,
      "stom": 9038,
      "wide": 9039,
      "trait": 9040,
      "gged": 9041,
      "taruh": 9042,
      "rence": 9043,
      "kaca": 9044,
      "llo": 9045,
      "spes": 9046,
      "lonely": 9047,
      "Doug": 9048,
      "Bak": 9049,
      "Berlin": 9050,
      "asu": 9051,
      "menyayangimu": 9052,
      "tikan": 9053,
      "Minggu": 9054,
      "Direktur": 9055,
      "lick": 9056,
      "email": 9057,
      "anggang": 9058,
      "Ceritakan": 9059,
      "Previously": 9060,
      "susu": 9061,
      "ility": 9062,
      "holes": 9063,
      "perangkap": 9064,
      "switch": 9065,
      "mulia": 9066,
      "sembilan": 9067,
      "selling": 9068,
      "senti": 9069,
      "Chen": 9070,
      "putuskan": 9071,
      "babe": 9072,
      "clai": 9073,
      "Eat": 9074,
      "Chang": 9075,
      "basah": 9076,
      "mengenalmu": 9077,
      "Pot": 9078,
      "maga": 9079,
      "affic": 9080,
      "Telepon": 9081,
      "served": 9082,
      "Brook": 9083,
      "habiskan": 9084,
      "Profesor": 9085,
      "WA": 9086,
      "tertutup": 9087,
      "pabrik": 9088,
      "berde": 9089,
      "taksi": 9090,
      "source": 9091,
      "lengkap": 9092,
      "unduk": 9093,
      "cuci": 9094,
      "Vegas": 9095,
      "health": 9096,
      "orm": 9097,
      "Kemati": 9098,
      "ln": 9099,
      "atures": 9100,
      "discovered": 9101,
      "Quinn": 9102,
      "mengalah": 9103,
      "boneka": 9104,
      "rin": 9105,
      "kesal": 9106,
      "fected": 9107,
      "kerum": 9108,
      "zard": 9109,
      "orium": 9110,
      "imat": 9111,
      "melemp": 9112,
      "lurus": 9113,
      "gaan": 9114,
      "saudaramu": 9115,
      "forest": 9116,
      "benar2": 9117,
      "Chil": 9118,
      "finds": 9119,
      "trigger": 9120,
      "Kudengar": 9121,
      "asiswa": 9122,
      "Bus": 9123,
      "tertembak": 9124,
      "membawakan": 9125,
      "Brody": 9126,
      "Dri": 9127,
      "tically": 9128,
      "manager": 9129,
      "meninggalkanmu": 9130,
      "shots": 9131,
      "trapped": 9132,
      "Pun": 9133,
      "guhan": 9134,
      "easily": 9135,
      "Nate": 9136,
      "Akulah": 9137,
      "moral": 9138,
      "sembunyikan": 9139,
      "Anakku": 9140,
      "Central": 9141,
      "Aneh": 9142,
      "memesan": 9143,
      "mengatasi": 9144,
      "expecting": 9145,
      "peran": 9146,
      "silly": 9147,
      "dipecat": 9148,
      "merekam": 9149,
      "giant": 9150,
      "asion": 9151,
      "lis": 9152,
      "Donald": 9153,
      "bags": 9154,
      "ditutup": 9155,
      "Feel": 9156,
      "isol": 9157,
      "Walt": 9158,
      "lukisan": 9159,
      "Rand": 9160,
      "dev": 9161,
      "pemburu": 9162,
      "corn": 9163,
      "kesepian": 9164,
      "connected": 9165,
      "Yahudi": 9166,
      "Lap": 9167,
      "thew": 9168,
      "stayed": 9169,
      "Believe": 9170,
      "Tes": 9171,
      "issa": 9172,
      "Mei": 9173,
      "berutang": 9174,
      "jabat": 9175,
      "champion": 9176,
      "parts": 9177,
      "understanding": 9178,
      "memperbaik": 9179,
      "ideas": 9180,
      "pends": 9181,
      "menyuruhku": 9182,
      "menyingkirkan": 9183,
      "incredible": 9184,
      "jikkan": 9185,
      "Felic": 9186,
      "merencanakan": 9187,
      "Ain": 9188,
      "Kut": 9189,
      "Tent": 9190,
      "rass": 9191,
      "terbiasa": 9192,
      "karir": 9193,
      "moves": 9194,
      "Careful": 9195,
      "Nancy": 9196,
      "liot": 9197,
      "ruined": 9198,
      "firmasi": 9199,
      "vior": 9200,
      "Team": 9201,
      "melindungimu": 9202,
      "%.": 9203,
      "amount": 9204,
      "anese": 9205,
      "wards": 9206,
      "percobaan": 9207,
      "lands": 9208,
      "Tidur": 9209,
      "bertengkar": 9210,
      "Darimana": 9211,
      "Sl": 9212,
      "tingg": 9213,
      "sitas": 9214,
      "kekuasaan": 9215,
      "Yoon": 9216,
      "Gunakan": 9217,
      "mac": 9218,
      "sual": 9219,
      "kakakku": 9220,
      "racun": 9221,
      "gaji": 9222,
      "Although": 9223,
      "screwed": 9224,
      "Anton": 9225,
      "several": 9226,
      "Dana": 9227,
      "burning": 9228,
      "krut": 9229,
      "kabel": 9230,
      "slept": 9231,
      "stabil": 9232,
      "mengatas": 9233,
      "vies": 9234,
      "Yeon": 9235,
      "Lydia": 9236,
      "alikota": 9237,
      "Enam": 9238,
      "kesehat": 9239,
      "tombol": 9240,
      "Tha": 9241,
      "State": 9242,
      "Almost": 9243,
      "Harvey": 9244,
      "Lucas": 9245,
      "Steven": 9246,
      "gress": 9247,
      "Quiet": 9248,
      "Ero": 9249,
      "Menteri": 9250,
      "details": 9251,
      "ailed": 9252,
      "rely": 9253,
      "staff": 9254,
      "kutahu": 9255,
      "bernapas": 9256,
      "owongan": 9257,
      "Gib": 9258,
      "Matthew": 9259,
      "tongue": 9260,
      "politik": 9261,
      "Nar": 9262,
      "ikopter": 9263,
      "Wr": 9264,
      "tory": 9265,
      "menggo": 9266,
      "Such": 9267,
      "SI": 9268,
      "Siapapun": 9269,
      "classi": 9270,
      "Hum": 9271,
      "Iron": 9272,
      "arts": 9273,
      "showing": 9274,
      "senjatamu": 9275,
      "Gabriel": 9276,
      "language": 9277,
      "36": 9278,
      "asuh": 9279,
      "ketidak": 9280,
      "breathing": 9281,
      "ears": 9282,
      "noise": 9283,
      "wrap": 9284,
      "tiny": 9285,
      "Tina": 9286,
      "doin": 9287,
      "sacrifice": 9288,
      "Hadi": 9289,
      "andai": 9290,
      "menghubungimu": 9291,
      "Agar": 9292,
      "Ketua": 9293,
      "pembohong": 9294,
      "menje": 9295,
      "lesson": 9296,
      "bunyi": 9297,
      "memerik": 9298,
      "Julie": 9299,
      "Europe": 9300,
      "Marshall": 9301,
      "kontrol": 9302,
      "jenius": 9303,
      "bleeding": 9304,
      "sambil": 9305,
      "agne": 9306,
      "puny": 9307,
      "However": 9308,
      "hitungan": 9309,
      "ucapkan": 9310,
      "mos": 9311,
      "began": 9312,
      "melaw": 9313,
      "ajat": 9314,
      "specially": 9315,
      "Elliot": 9316,
      "yataannya": 9317,
      "Kor": 9318,
      "button": 9319,
      "menemukanmu": 9320,
      "menunggumu": 9321,
      "meth": 9322,
      "Griff": 9323,
      "diberi": 9324,
      "kedengar": 9325,
      "destiny": 9326,
      "menggali": 9327,
      "Sophie": 9328,
      "wire": 9329,
      "Friday": 9330,
      "Fort": 9331,
      "kendaraan": 9332,
      "bersemangat": 9333,
      "Terakhir": 9334,
      "bersenjata": 9335,
      "memohon": 9336,
      "ocean": 9337,
      "arahan": 9338,
      "perfectly": 9339,
      "Bas": 9340,
      "hired": 9341,
      "melam": 9342,
      "abadi": 9343,
      "mempelajari": 9344,
      "suku": 9345,
      "aci": 9346,
      "tekan": 9347,
      "plat": 9348,
      "halus": 9349,
      "Oleh": 9350,
      "kudengar": 9351,
      "butt": 9352,
      "Keku": 9353,
      "protection": 9354,
      "Tetaplah": 9355,
      "repot": 9356,
      "ombang": 9357,
      "telev": 9358,
      "menghajar": 9359,
      "Kedua": 9360,
      "victims": 9361,
      "Cher": 9362,
      "vest": 9363,
      "owner": 9364,
      "Pis": 9365,
      "goo": 9366,
      "cused": 9367,
      "tower": 9368,
      "Diamlah": 9369,
      "steps": 9370,
      "convinc": 9371,
      "Hou": 9372,
      "reve": 9373,
      "ookie": 9374,
      "Sempurna": 9375,
      "menyaksikan": 9376,
      "Lucky": 9377,
      "pingsan": 9378,
      "Ling": 9379,
      "Pho": 9380,
      ".?": 9381,
      "burned": 9382,
      "kinda": 9383,
      "tawa": 9384,
      "menam": 9385,
      "docu": 9386,
      "Sherlock": 9387,
      "Gang": 9388,
      "planned": 9389,
      "fingers": 9390,
      "mengatasinya": 9391,
      "jay": 9392,
      "menemuinya": 9393,
      "Jujur": 9394,
      "recently": 9395,
      "rindu": 9396,
      "susah": 9397,
      "menggigit": 9398,
      "salahmu": 9399,
      "Jatuhkan": 9400,
      "Ket": 9401,
      "ura": 9402,
      "happiness": 9403,
      "memperbaikinya": 9404,
      "OF": 9405,
      "oil": 9406,
      "pemu": 9407,
      "changing": 9408,
      "arrange": 9409,
      "Him": 9410,
      "menyatakan": 9411,
      "sons": 9412,
      "player": 9413,
      "keju": 9414,
      "anye": 9415,
      "changes": 9416,
      "ets": 9417,
      "detektif": 9418,
      "medicine": 9419,
      "PE": 9420,
      "Ting": 9421,
      "payah": 9422,
      "amin": 9423,
      "gembira": 9424,
      "hunting": 9425,
      "ening": 9426,
      "Inter": 9427,
      "Keparat": 9428,
      "espe": 9429,
      "peman": 9430,
      "ships": 9431,
      "Cale": 9432,
      "Pelan": 9433,
      "NE": 9434,
      "gather": 9435,
      "Need": 9436,
      "Junior": 9437,
      "melemparkan": 9438,
      "ders": 9439,
      "watched": 9440,
      "ito": 9441,
      "halo": 9442,
      "season": 9443,
      "terburu": 9444,
      "Bersama": 9445,
      "Grab": 9446,
      "England": 9447,
      "Saul": 9448,
      "bant": 9449,
      "ouched": 9450,
      "keter": 9451,
      "singing": 9452,
      "syarat": 9453,
      "larang": 9454,
      "Vol": 9455,
      "east": 9456,
      "lak": 9457,
      "karan": 9458,
      "pertaruh": 9459,
      "Eropa": 9460,
      "bulu": 9461,
      "goin": 9462,
      "desper": 9463,
      "infeksi": 9464,
      "heran": 9465,
      "contoh": 9466,
      "baginya": 9467,
      "kebebasan": 9468,
      "Nich": 9469,
      "cture": 9470,
      "Suara": 9471,
      "Security": 9472,
      "Drink": 9473,
      "distance": 9474,
      "jata": 9475,
      "surround": 9476,
      "tolol": 9477,
      "legend": 9478,
      "reality": 9479,
      "sepupu": 9480,
      "Pul": 9481,
      "permission": 9482,
      "Neil": 9483,
      "transport": 9484,
      "especially": 9485,
      "sni": 9486,
      "kupikirkan": 9487,
      "Arab": 9488,
      "screaming": 9489,
      ".!": 9490,
      "mengungkap": 9491,
      "juara": 9492,
      "sugar": 9493,
      "buatan": 9494,
      "Ned": 9495,
      "Ven": 9496,
      "beha": 9497,
      "kain": 9498,
      "Monroe": 9499,
      "Bilang": 9500,
      "eres": 9501,
      "mantra": 9502,
      "awake": 9503,
      "eph": 9504,
      "downstairs": 9505,
      "landia": 9506,
      "Semakin": 9507,
      "Walk": 9508,
      "scan": 9509,
      "meminjam": 9510,
      "47": 9511,
      "strip": 9512,
      "menikahi": 9513,
      "families": 9514,
      "embarrass": 9515,
      "pper": 9516,
      "pill": 9517,
      "meal": 9518,
      "mengejutkan": 9519,
      "thief": 9520,
      "obvious": 9521,
      "berbaring": 9522,
      "Paham": 9523,
      "perkata": 9524,
      "bio": 9525,
      "funeral": 9526,
      "Thought": 9527,
      "divid": 9528,
      "conscious": 9529,
      "akui": 9530,
      "ingo": 9531,
      "lid": 9532,
      "understood": 9533,
      "grandfather": 9534,
      "bijaksana": 9535,
      "ahunya": 9536,
      "menendang": 9537,
      "Membunuh": 9538,
      "mobilku": 9539,
      "ample": 9540,
      "Berdiri": 9541,
      "Memangnya": 9542,
      "mencegah": 9543,
      "Wend": 9544,
      "yourselves": 9545,
      "dating": 9546,
      "kuatir": 9547,
      "menyembuh": 9548,
      "rep": 9549,
      "bike": 9550,
      "modern": 9551,
      "diserang": 9552,
      "Toby": 9553,
      "psycho": 9554,
      "pertaruhkan": 9555,
      "Kant": 9556,
      "kantong": 9557,
      "rumor": 9558,
      "jawabannya": 9559,
      "opening": 9560,
      "Daisy": 9561,
      "professional": 9562,
      "kesenangan": 9563,
      "Apparently": 9564,
      "Ward": 9565,
      "lun": 9566,
      "resist": 9567,
      "higher": 9568,
      "Laura": 9569,
      "raised": 9570,
      "Pintu": 9571,
      "mengusir": 9572,
      "bent": 9573,
      "mampir": 9574,
      "thousands": 9575,
      "chuck": 9576,
      "Sally": 9577,
      "Satur": 9578,
      "aninya": 9579,
      "pengantin": 9580,
      "birds": 9581,
      "Hitler": 9582,
      "Port": 9583,
      "spin": 9584,
      "Buku": 9585,
      "Mona": 9586,
      "uri": 9587,
      "gangguan": 9588,
      "32": 9589,
      "Band": 9590,
      "pound": 9591,
      "beban": 9592,
      "mengadakan": 9593,
      "awalnya": 9594,
      "fisik": 9595,
      "Iblis": 9596,
      "Tai": 9597,
      "kasihan": 9598,
      "dibelakang": 9599,
      "permen": 9600,
      "Percy": 9601,
      "mendengarmu": 9602,
      "THAT": 9603,
      "membicarakannya": 9604,
      "VER": 9605,
      "Senjata": 9606,
      "direction": 9607,
      "gini": 9608,
      "poin": 9609,
      "claim": 9610,
      "render": 9611,
      "Connor": 9612,
      "emosi": 9613,
      "Plus": 9614,
      "Chap": 9615,
      "penggemar": 9616,
      "agents": 9617,
      "device": 9618,
      "caused": 9619,
      "speech": 9620,
      "ratu": 9621,
      "spare": 9622,
      "tos": 9623,
      "lets": 9624,
      "Anybody": 9625,
      "penyer": 9626,
      "dial": 9627,
      "penduduk": 9628,
      "bukannya": 9629,
      "sungguhan": 9630,
      "publik": 9631,
      "basement": 9632,
      "Fro": 9633,
      "berry": 9634,
      "Allen": 9635,
      "Johnson": 9636,
      "shock": 9637,
      "fashion": 9638,
      "berlaku": 9639,
      "Japanese": 9640,
      "sepeda": 9641,
      "Bor": 9642,
      "resul": 9643,
      "chick": 9644,
      "matikan": 9645,
      "bandara": 9646,
      "Mudah": 9647,
      "scient": 9648,
      "yi": 9649,
      "berperang": 9650,
      "Alf": 9651,
      "official": 9652,
      "Muh": 9653,
      "surance": 9654,
      "koran": 9655,
      "menyelidiki": 9656,
[...]
